#include "magic_wand_model_data.h"


// We need to keep the data array aligned on some architectures.

#ifdef __has_attribute

#define HAVE_ATTRIBUTE(x) __has_attribute(x)

#else

#define HAVE_ATTRIBUTE(x) 0

#endif

#if HAVE_ATTRIBUTE(aligned) || (defined(__GNUC__) && !defined(__clang__))

#define DATA_ALIGN_ATTRIBUTE __attribute__((aligned(4)))

#else

#define DATA_ALIGN_ATTRIBUTE

#endif


const unsigned char g_magic_wand_model_data[] DATA_ALIGN_ATTRIBUTE = {

  // Paste the data of the char array in `src/model.cc` here
    0x08, 0x00, 0x00, 0x00, 0x54, 0x46, 0x4c, 0x33, 0x62, 0xff, 0xff, 0xff,
  0x03, 0x00, 0x00, 0x00, 0x10, 0x00, 0x00, 0x00, 0x24, 0x00, 0x00, 0x00,
  0x78, 0x00, 0x00, 0x00, 0x24, 0x00, 0x00, 0x00, 0x05, 0x00, 0x00, 0x00,
  0x78, 0x05, 0x00, 0x00, 0xb0, 0x04, 0x00, 0x00, 0xe0, 0x02, 0x00, 0x00,
  0x60, 0x02, 0x00, 0x00, 0x54, 0x01, 0x00, 0x00, 0x01, 0x00, 0x00, 0x00,
  0x78, 0x00, 0x00, 0x00, 0x13, 0x00, 0x00, 0x00, 0x18, 0x30, 0x00, 0x00,
  0x14, 0x30, 0x00, 0x00, 0x20, 0x2f, 0x00, 0x00, 0xa8, 0x2e, 0x00, 0x00,
  0x3c, 0x2e, 0x00, 0x00, 0xec, 0x11, 0x00, 0x00, 0x98, 0x10, 0x00, 0x00,
  0xbc, 0x0e, 0x00, 0x00, 0x60, 0x06, 0x00, 0x00, 0xfc, 0x05, 0x00, 0x00,
  0x78, 0x05, 0x00, 0x00, 0xec, 0x2f, 0x00, 0x00, 0xe8, 0x2f, 0x00, 0x00,
  0xe4, 0x2f, 0x00, 0x00, 0xe0, 0x2f, 0x00, 0x00, 0xdc, 0x2f, 0x00, 0x00,
  0xd8, 0x2f, 0x00, 0x00, 0xd4, 0x2f, 0x00, 0x00, 0xd0, 0x2f, 0x00, 0x00,
  0x0f, 0x00, 0x00, 0x00, 0x4d, 0x4c, 0x49, 0x52, 0x20, 0x43, 0x6f, 0x6e,
  0x76, 0x65, 0x72, 0x74, 0x65, 0x64, 0x2e, 0x00, 0x00, 0x00, 0x0e, 0x00,
  0x18, 0x00, 0x04, 0x00, 0x08, 0x00, 0x0c, 0x00, 0x10, 0x00, 0x14, 0x00,
  0x0e, 0x00, 0x00, 0x00, 0x14, 0x00, 0x00, 0x00, 0x5c, 0x00, 0x00, 0x00,
  0x60, 0x00, 0x00, 0x00, 0x64, 0x00, 0x00, 0x00, 0x84, 0x00, 0x00, 0x00,
  0x12, 0x00, 0x00, 0x00, 0x48, 0x2f, 0x00, 0x00, 0xe4, 0x2e, 0x00, 0x00,
  0x3c, 0x2e, 0x00, 0x00, 0xd8, 0x2d, 0x00, 0x00, 0x70, 0x2d, 0x00, 0x00,
  0x1c, 0x11, 0x00, 0x00, 0xc0, 0x0f, 0x00, 0x00, 0xe4, 0x0d, 0x00, 0x00,
  0xa0, 0x05, 0x00, 0x00, 0x3c, 0x05, 0x00, 0x00, 0xb0, 0x04, 0x00, 0x00,
  0xe8, 0x03, 0x00, 0x00, 0x38, 0x03, 0x00, 0x00, 0xa4, 0x02, 0x00, 0x00,
  0x10, 0x02, 0x00, 0x00, 0x90, 0x01, 0x00, 0x00, 0xfc, 0x00, 0x00, 0x00,
  0x80, 0x00, 0x00, 0x00, 0x01, 0x00, 0x00, 0x00, 0x00, 0x00, 0x00, 0x00,
  0x01, 0x00, 0x00, 0x00, 0x11, 0x00, 0x00, 0x00, 0x08, 0x00, 0x00, 0x00,
  0x1c, 0x04, 0x00, 0x00, 0x58, 0x03, 0x00, 0x00, 0xc8, 0x02, 0x00, 0x00,
  0x24, 0x02, 0x00, 0x00, 0xac, 0x01, 0x00, 0x00, 0x10, 0x01, 0x00, 0x00,
  0x94, 0x00, 0x00, 0x00, 0x10, 0x00, 0x00, 0x00, 0x04, 0x00, 0x00, 0x00,
  0x6d, 0x61, 0x69, 0x6e, 0x00, 0x00, 0x00, 0x00, 0x8e, 0xff, 0xff, 0xff,
  0x00, 0x00, 0x00, 0x09, 0x04, 0x00, 0x00, 0x00, 0x1c, 0x00, 0x00, 0x00,
  0x10, 0x00, 0x00, 0x00, 0x04, 0x00, 0x00, 0x00, 0x0a, 0xd2, 0xff, 0xff,
  0x00, 0x00, 0x80, 0x3f, 0x01, 0x00, 0x00, 0x00, 0x11, 0x00, 0x00, 0x00,
  0x01, 0x00, 0x00, 0x00, 0x10, 0x00, 0x00, 0x00, 0xf6, 0xfb, 0xff, 0xff,
  0x00, 0x00, 0x00, 0x19, 0x01, 0x00, 0x00, 0x00, 0x8a, 0xd1, 0xff, 0xff,
  0x10, 0x00, 0x00, 0x00, 0x12, 0x00, 0x00, 0x00, 0x14, 0x00, 0x00, 0x00,
  0x20, 0x00, 0x00, 0x00, 0x02, 0x00, 0x00, 0x00, 0x01, 0x00, 0x00, 0x00,
  0x04, 0x00, 0x00, 0x00, 0x08, 0x00, 0x00, 0x00, 0x49, 0x64, 0x65, 0x6e,
  0x74, 0x69, 0x74, 0x79, 0x00, 0x00, 0x00, 0x00, 0xc4, 0xd1, 0xff, 0xff,
  0x00, 0x00, 0x0e, 0x00, 0x18, 0x00, 0x08, 0x00, 0x0c, 0x00, 0x10, 0x00,
  0x07, 0x00, 0x14, 0x00, 0x0e, 0x00, 0x00, 0x00, 0x00, 0x00, 0x00, 0x08,
  0x03, 0x00, 0x00, 0x00, 0x18, 0x00, 0x00, 0x00, 0x0c, 0x00, 0x00, 0x00,
  0x04, 0x00, 0x00, 0x00, 0x98, 0xd1, 0xff, 0xff, 0x01, 0x00, 0x00, 0x00,
  0x10, 0x00, 0x00, 0x00, 0x03, 0x00, 0x00, 0x00, 0x0f, 0x00, 0x00, 0x00,
  0x05, 0x00, 0x00, 0x00, 0x02, 0x00, 0x00, 0x00, 0x02, 0xd2, 0xff, 0xff,
  0x10, 0x00, 0x00, 0x00, 0x11, 0x00, 0x00, 0x00, 0x14, 0x00, 0x00, 0x00,
  0x30, 0x00, 0x00, 0x00, 0x02, 0x00, 0x00, 0x00, 0x01, 0x00, 0x00, 0x00,
  0x04, 0x00, 0x00, 0x00, 0x1a, 0x00, 0x00, 0x00, 0x73, 0x65, 0x71, 0x75,
  0x65, 0x6e, 0x74, 0x69, 0x61, 0x6c, 0x2f, 0x64, 0x65, 0x6e, 0x73, 0x65,
  0x5f, 0x31, 0x2f, 0x42, 0x69, 0x61, 0x73, 0x41, 0x64, 0x64, 0x00, 0x00,
  0xf4, 0xd1, 0xff, 0xff, 0xd6, 0xfd, 0xff, 0xff, 0x00, 0x00, 0x00, 0x08,
  0x03, 0x00, 0x00, 0x00, 0x24, 0x00, 0x00, 0x00, 0x18, 0x00, 0x00, 0x00,
  0x0c, 0x00, 0x00, 0x00, 0x00, 0x00, 0x06, 0x00, 0x08, 0x00, 0x07, 0x00,
  0x06, 0x00, 0x00, 0x00, 0x00, 0x00, 0x00, 0x01, 0x01, 0x00, 0x00, 0x00,
  0x0f, 0x00, 0x00, 0x00, 0x03, 0x00, 0x00, 0x00, 0x0e, 0x00, 0x00, 0x00,
  0x04, 0x00, 0x00, 0x00, 0x01, 0x00, 0x00, 0x00, 0xfe, 0xfc, 0xff, 0xff,
  0x00, 0x00, 0x00, 0x09, 0x01, 0x00, 0x00, 0x00, 0x92, 0xd2, 0xff, 0xff,
  0x10, 0x00, 0x00, 0x00, 0x10, 0x00, 0x00, 0x00, 0x14, 0x00, 0x00, 0x00,
  0x2c, 0x00, 0x00, 0x00, 0x02, 0x00, 0x00, 0x00, 0x01, 0x00, 0x00, 0x00,
  0x10, 0x00, 0x00, 0x00, 0x15, 0x00, 0x00, 0x00, 0x73, 0x65, 0x71, 0x75,
  0x65, 0x6e, 0x74, 0x69, 0x61, 0x6c, 0x2f, 0x64, 0x65, 0x6e, 0x73, 0x65,
  0x2f, 0x52, 0x65, 0x6c, 0x75, 0x00, 0x00, 0x00, 0xd8, 0xd2, 0xff, 0xff,
  0x00, 0x00, 0x0a, 0x00, 0x10, 0x00, 0x04, 0x00, 0x08, 0x00, 0x0c, 0x00,
  0x0a, 0x00, 0x00, 0x00, 0x02, 0x00, 0x00, 0x00, 0x10, 0x00, 0x00, 0x00,
  0x04, 0x00, 0x00, 0x00, 0x01, 0x00, 0x00, 0x00, 0x0e, 0x00, 0x00, 0x00,
  0x02, 0x00, 0x00, 0x00, 0x0d, 0x00, 0x00, 0x00, 0x03, 0x00, 0x00, 0x00,
  0x7a, 0xfd, 0xff, 0xff, 0x00, 0x00, 0x00, 0x16, 0x01, 0x00, 0x00, 0x00,
  0x0e, 0xd3, 0xff, 0xff, 0x10, 0x00, 0x00, 0x00, 0x0f, 0x00, 0x00, 0x00,
  0x14, 0x00, 0x00, 0x00, 0x30, 0x00, 0x00, 0x00, 0x02, 0x00, 0x00, 0x00,
  0x01, 0x00, 0x00, 0x00, 0x70, 0x00, 0x00, 0x00, 0x1a, 0x00, 0x00, 0x00,
  0x73, 0x65, 0x71, 0x75, 0x65, 0x6e, 0x74, 0x69, 0x61, 0x6c, 0x2f, 0x66,
  0x6c, 0x61, 0x74, 0x74, 0x65, 0x6e, 0x2f, 0x52, 0x65, 0x73, 0x68, 0x61,
  0x70, 0x65, 0x00, 0x00, 0x00, 0xd3, 0xff, 0xff, 0xe2, 0xfe, 0xff, 0xff,
  0x00, 0x00, 0x00, 0x05, 0x01, 0x00, 0x00, 0x00, 0x38, 0x00, 0x00, 0x00,
  0x2c, 0x00, 0x00, 0x00, 0x14, 0x00, 0x00, 0x00, 0x00, 0x00, 0x0e, 0x00,
  0x14, 0x00, 0x00, 0x00, 0x10, 0x00, 0x0c, 0x00, 0x08, 0x00, 0x04, 0x00,
  0x0e, 0x00, 0x00, 0x00, 0x03, 0x00, 0x00, 0x00, 0x01, 0x00, 0x00, 0x00,
  0x03, 0x00, 0x00, 0x00, 0x01, 0x00, 0x00, 0x00, 0x01, 0x00, 0x00, 0x00,
  0x0d, 0x00, 0x00, 0x00, 0x01, 0x00, 0x00, 0x00, 0x0c, 0x00, 0x00, 0x00,
  0x9e, 0xd3, 0xff, 0xff, 0x10, 0x00, 0x00, 0x00, 0x0e, 0x00, 0x00, 0x00,
  0x1c, 0x00, 0x00, 0x00, 0x40, 0x00, 0x00, 0x00, 0x04, 0x00, 0x00, 0x00,
  0x01, 0x00, 0x00, 0x00, 0x07, 0x00, 0x00, 0x00, 0x01, 0x00, 0x00, 0x00,
  0x10, 0x00, 0x00, 0x00, 0x22, 0x00, 0x00, 0x00, 0x73, 0x65, 0x71, 0x75,
  0x65, 0x6e, 0x74, 0x69, 0x61, 0x6c, 0x2f, 0x6d, 0x61, 0x78, 0x5f, 0x70,
  0x6f, 0x6f, 0x6c, 0x69, 0x6e, 0x67, 0x32, 0x64, 0x5f, 0x31, 0x2f, 0x4d,
  0x61, 0x78, 0x50, 0x6f, 0x6f, 0x6c, 0x00, 0x00, 0xa0, 0xd3, 0xff, 0xff,
  0xc2, 0xfe, 0xff, 0xff, 0x00, 0x00, 0x00, 0x01, 0x24, 0x00, 0x00, 0x00,
  0x18, 0x00, 0x00, 0x00, 0x04, 0x00, 0x00, 0x00, 0xb4, 0xfe, 0xff, 0xff,
  0x01, 0x00, 0x00, 0x00, 0x01, 0x00, 0x00, 0x00, 0x00, 0x00, 0x00, 0x01,
  0x01, 0x00, 0x00, 0x00, 0x0c, 0x00, 0x00, 0x00, 0x03, 0x00, 0x00, 0x00,
  0x0b, 0x00, 0x00, 0x00, 0x07, 0x00, 0x00, 0x00, 0x09, 0x00, 0x00, 0x00,
  0x2e, 0xd4, 0xff, 0xff, 0x10, 0x00, 0x00, 0x00, 0x0d, 0x00, 0x00, 0x00,
  0x1c, 0x00, 0x00, 0x00, 0x2c, 0x00, 0x00, 0x00, 0x04, 0x00, 0x00, 0x00,
  0x01, 0x00, 0x00, 0x00, 0x15, 0x00, 0x00, 0x00, 0x01, 0x00, 0x00, 0x00,
  0x10, 0x00, 0x00, 0x00, 0x0c, 0x00, 0x00, 0x00, 0x74, 0x66, 0x6c, 0x2e,
  0x63, 0x6f, 0x6e, 0x76, 0x5f, 0x32, 0x64, 0x31, 0x00, 0x00, 0x00, 0x00,
  0x74, 0xd4, 0xff, 0xff, 0x00, 0x00, 0x0e, 0x00, 0x1a, 0x00, 0x08, 0x00,
  0x0c, 0x00, 0x10, 0x00, 0x07, 0x00, 0x14, 0x00, 0x0e, 0x00, 0x00, 0x00,
  0x00, 0x00, 0x00, 0x05, 0x01, 0x00, 0x00, 0x00, 0x3c, 0x00, 0x00, 0x00,
  0x30, 0x00, 0x00, 0x00, 0x14, 0x00, 0x00, 0x00, 0x00, 0x00, 0x0e, 0x00,
  0x18, 0x00, 0x17, 0x00, 0x10, 0x00, 0x0c, 0x00, 0x08, 0x00, 0x04, 0x00,
  0x0e, 0x00, 0x00, 0x00, 0x03, 0x00, 0x00, 0x00, 0x03, 0x00, 0x00, 0x00,
  0x03, 0x00, 0x00, 0x00, 0x03, 0x00, 0x00, 0x00, 0x00, 0x00, 0x00, 0x01,
  0x01, 0x00, 0x00, 0x00, 0x0b, 0x00, 0x00, 0x00, 0x01, 0x00, 0x00, 0x00,
  0x0a, 0x00, 0x00, 0x00, 0x46, 0xff, 0xff, 0xff, 0x00, 0x00, 0x00, 0x11,
  0x01, 0x00, 0x00, 0x00, 0xda, 0xd4, 0xff, 0xff, 0x10, 0x00, 0x00, 0x00,
  0x0c, 0x00, 0x00, 0x00, 0x1c, 0x00, 0x00, 0x00, 0x40, 0x00, 0x00, 0x00,
  0x04, 0x00, 0x00, 0x00, 0x01, 0x00, 0x00, 0x00, 0x15, 0x00, 0x00, 0x00,
  0x01, 0x00, 0x00, 0x00, 0x08, 0x00, 0x00, 0x00, 0x20, 0x00, 0x00, 0x00,
  0x73, 0x65, 0x71, 0x75, 0x65, 0x6e, 0x74, 0x69, 0x61, 0x6c, 0x2f, 0x6d,
  0x61, 0x78, 0x5f, 0x70, 0x6f, 0x6f, 0x6c, 0x69, 0x6e, 0x67, 0x32, 0x64,
  0x2f, 0x4d, 0x61, 0x78, 0x50, 0x6f, 0x6f, 0x6c, 0x00, 0x00, 0x00, 0x00,
  0x34, 0xd5, 0xff, 0xff, 0x00, 0x00, 0x0e, 0x00, 0x14, 0x00, 0x00, 0x00,
  0x08, 0x00, 0x0c, 0x00, 0x07, 0x00, 0x10, 0x00, 0x0e, 0x00, 0x00, 0x00,
  0x00, 0x00, 0x00, 0x01, 0x30, 0x00, 0x00, 0x00, 0x24, 0x00, 0x00, 0x00,
  0x10, 0x00, 0x00, 0x00, 0x0c, 0x00, 0x10, 0x00, 0x00, 0x00, 0x04, 0x00,
  0x08, 0x00, 0x0f, 0x00, 0x0c, 0x00, 0x00, 0x00, 0x01, 0x00, 0x00, 0x00,
  0x01, 0x00, 0x00, 0x00, 0x00, 0x00, 0x00, 0x01, 0x01, 0x00, 0x00, 0x00,
  0x0a, 0x00, 0x00, 0x00, 0x03, 0x00, 0x00, 0x00, 0x00, 0x00, 0x00, 0x00,
  0x06, 0x00, 0x00, 0x00, 0x08, 0x00, 0x00, 0x00, 0x00, 0x00, 0x0a, 0x00,
  0x0c, 0x00, 0x07, 0x00, 0x00, 0x00, 0x08, 0x00, 0x0a, 0x00, 0x00, 0x00,
  0x00, 0x00, 0x00, 0x03, 0x01, 0x00, 0x00, 0x00, 0x9e, 0xd5, 0xff, 0xff,
  0x10, 0x00, 0x00, 0x00, 0x0b, 0x00, 0x00, 0x00, 0x1c, 0x00, 0x00, 0x00,
  0x28, 0x00, 0x00, 0x00, 0x04, 0x00, 0x00, 0x00, 0x01, 0x00, 0x00, 0x00,
  0x40, 0x00, 0x00, 0x00, 0x03, 0x00, 0x00, 0x00, 0x08, 0x00, 0x00, 0x00,
  0x0b, 0x00, 0x00, 0x00, 0x74, 0x66, 0x6c, 0x2e, 0x63, 0x6f, 0x6e, 0x76,
  0x5f, 0x32, 0x64, 0x00, 0x88, 0xd5, 0xff, 0xff, 0x7e, 0xd6, 0xff, 0xff,
  0x04, 0x00, 0x00, 0x00, 0x40, 0x00, 0x00, 0x00, 0x49, 0x8b, 0xd4, 0xbf,
  0x2b, 0x4e, 0x9d, 0xbf, 0xe9, 0x52, 0x48, 0x3f, 0x43, 0x91, 0x97, 0xbf,
  0x99, 0x90, 0x89, 0x3f, 0x1b, 0x0f, 0xc0, 0xbf, 0x98, 0xc5, 0x97, 0xbf,
  0x87, 0xf8, 0x36, 0x3f, 0x2c, 0x3e, 0xf6, 0x3f, 0x1d, 0x94, 0xc2, 0x3f,
  0x33, 0xc4, 0x42, 0xbe, 0x3f, 0x4c, 0x61, 0xbf, 0x25, 0xa4, 0xb2, 0xbe,
  0x6a, 0x7a, 0x6f, 0xbf, 0x0f, 0x13, 0x69, 0x3d, 0x9a, 0xac, 0x63, 0x40,
  0x26, 0xd6, 0xff, 0xff, 0x10, 0x00, 0x00, 0x00, 0x0a, 0x00, 0x00, 0x00,
  0x10, 0x00, 0x00, 0x00, 0x20, 0x00, 0x00, 0x00, 0x01, 0x00, 0x00, 0x00,
  0x10, 0x00, 0x00, 0x00, 0x0d, 0x00, 0x00, 0x00, 0x73, 0x74, 0x64, 0x2e,
  0x63, 0x6f, 0x6e, 0x73, 0x74, 0x61, 0x6e, 0x74, 0x31, 0x00, 0x00, 0x00,
  0x08, 0xd6, 0xff, 0xff, 0xfe, 0xd6, 0xff, 0xff, 0x04, 0x00, 0x00, 0x00,
  0x20, 0x00, 0x00, 0x00, 0x2b, 0xdf, 0x98, 0xbf, 0x1d, 0x45, 0xca, 0xbe,
  0x25, 0x00, 0x3c, 0xbf, 0x96, 0x19, 0x11, 0xc0, 0xdc, 0xa8, 0x1e, 0xc0,
  0x13, 0x16, 0x24, 0xc0, 0x7b, 0xfd, 0x97, 0xbf, 0x22, 0xa4, 0x4b, 0x3f,
  0x86, 0xd6, 0xff, 0xff, 0x10, 0x00, 0x00, 0x00, 0x09, 0x00, 0x00, 0x00,
  0x10, 0x00, 0x00, 0x00, 0x20, 0x00, 0x00, 0x00, 0x01, 0x00, 0x00, 0x00,
  0x08, 0x00, 0x00, 0x00, 0x0c, 0x00, 0x00, 0x00, 0x73, 0x74, 0x64, 0x2e,
  0x63, 0x6f, 0x6e, 0x73, 0x74, 0x61, 0x6e, 0x74, 0x00, 0x00, 0x00, 0x00,
  0x68, 0xd6, 0xff, 0xff, 0x5e, 0xd7, 0xff, 0xff, 0x04, 0x00, 0x00, 0x00,
  0x00, 0x08, 0x00, 0x00, 0x77, 0xd4, 0x0c, 0xbe, 0x8e, 0x88, 0x3d, 0xbd,
  0x6d, 0xac, 0x83, 0xbd, 0x9c, 0x9a, 0x83, 0xbe, 0x7c, 0xae, 0xba, 0xbe,
  0xe2, 0x02, 0xe0, 0x3e, 0xfe, 0x2a, 0x0b, 0xbe, 0x97, 0x70, 0xad, 0xbd,
  0x97, 0xbb, 0x4a, 0xbc, 0xd0, 0x31, 0x2f, 0xbd, 0x62, 0x9c, 0x66, 0xbe,
  0xc4, 0x04, 0x0e, 0xbd, 0x74, 0xa7, 0x94, 0xbe, 0x62, 0xcf, 0x8d, 0x3e,
  0x18, 0x0c, 0x6e, 0xbd, 0x0f, 0xb0, 0x8f, 0xbd, 0x98, 0x88, 0xe0, 0xbd,
  0x68, 0xc3, 0x20, 0xbd, 0x9c, 0xff, 0xe9, 0xbd, 0x96, 0x18, 0xbd, 0x3e,
  0xac, 0x16, 0x59, 0x3d, 0xee, 0x43, 0x9d, 0x3e, 0x25, 0x0a, 0x00, 0x3e,
  0x81, 0x56, 0x61, 0xbd, 0xd9, 0x88, 0x16, 0x3c, 0xc0, 0xa4, 0xb1, 0xbc,
  0x6c, 0x0f, 0x52, 0xbc, 0x3e, 0x0d, 0x5e, 0x3e, 0x7a, 0x5f, 0x94, 0x3e,
  0xf6, 0x90, 0xd7, 0x3d, 0x28, 0xba, 0x5a, 0x3e, 0x44, 0x5e, 0x7f, 0xbc,
  0xe6, 0x16, 0x01, 0xbf, 0x9e, 0x3e, 0x4e, 0xbe, 0x30, 0xb1, 0xda, 0xbd,
  0xc3, 0xde, 0x29, 0x3d, 0x16, 0x1a, 0x4a, 0x3e, 0x80, 0x80, 0xb9, 0x3e,
  0x00, 0xf4, 0xaf, 0x3d, 0xf0, 0xf9, 0x44, 0xbe, 0x72, 0xf8, 0x36, 0x3e,
  0x79, 0x85, 0x94, 0xbe, 0xc5, 0x63, 0xa4, 0x3e, 0xd4, 0xd0, 0x9f, 0xbd,
  0x21, 0xb6, 0x28, 0x3c, 0x13, 0x51, 0xf9, 0x3d, 0x2a, 0x8c, 0x1f, 0xbd,
  0xec, 0x70, 0xdb, 0xbe, 0x06, 0x32, 0xc7, 0x3c, 0xd5, 0x84, 0x4f, 0xbd,
  0xc3, 0x1d, 0x5b, 0xbd, 0x26, 0x9f, 0x22, 0x3e, 0xdc, 0xc7, 0x93, 0x3d,
  0xad, 0x62, 0x89, 0x3d, 0x28, 0xdf, 0x51, 0xbe, 0x86, 0x48, 0xfd, 0xbc,
  0xb3, 0x1c, 0x80, 0xbe, 0x24, 0x76, 0xc5, 0xbc, 0x29, 0xff, 0x62, 0x3e,
  0x1a, 0xf8, 0x0f, 0x3e, 0xb8, 0x31, 0xf6, 0x3d, 0x7b, 0xfd, 0xa2, 0x3d,
  0xfc, 0x7a, 0xce, 0xbd, 0x0f, 0x07, 0x7e, 0x3d, 0x48, 0x53, 0x95, 0x3d,
  0x44, 0x91, 0x41, 0xbc, 0x06, 0xbe, 0x93, 0x3e, 0xff, 0x4b, 0x67, 0xbe,
  0x84, 0xb1, 0x30, 0xbe, 0xa6, 0x8f, 0x50, 0x3e, 0x46, 0x4c, 0x62, 0x3d,
  0x52, 0x13, 0xa8, 0xbc, 0xaf, 0x24, 0x0b, 0x3d, 0xf5, 0x71, 0x81, 0xbd,
  0xdc, 0xdb, 0x40, 0xbe, 0x49, 0x7a, 0xfb, 0xbe, 0x19, 0xf4, 0x71, 0xbf,
  0xac, 0xb2, 0x02, 0xbf, 0x87, 0x16, 0x3c, 0x3e, 0x0b, 0xfe, 0x80, 0xbd,
  0xa5, 0xbb, 0xe5, 0x3d, 0x0c, 0xd4, 0xcf, 0xbd, 0xab, 0x56, 0x08, 0x3d,
  0x49, 0x8f, 0x54, 0xbc, 0x71, 0x5b, 0x80, 0xbf, 0x6f, 0x0b, 0x10, 0x3d,
  0x5f, 0x1a, 0xff, 0xbd, 0x4f, 0xae, 0x8c, 0xbd, 0x12, 0x30, 0xa4, 0xbe,
  0x73, 0xe9, 0x3e, 0xbe, 0x81, 0xa7, 0x81, 0xbe, 0xd1, 0x33, 0x94, 0xbe,
  0x95, 0x5b, 0xa1, 0xbe, 0x45, 0xfa, 0xfa, 0xbc, 0x43, 0xb6, 0x4f, 0xbe,
  0xcb, 0x2d, 0x28, 0xbe, 0xd3, 0x7f, 0x44, 0xbd, 0xc7, 0xd1, 0x1d, 0xbe,
  0xf4, 0x08, 0x03, 0xbe, 0x4c, 0x23, 0x12, 0x3e, 0x4c, 0x0e, 0x5b, 0x3e,
  0x81, 0x48, 0x7e, 0x3e, 0x81, 0x8d, 0x3c, 0x3d, 0xe1, 0xbd, 0x33, 0xbe,
  0x0f, 0xd9, 0x03, 0x3c, 0x00, 0x89, 0xbf, 0xbd, 0x5e, 0x09, 0xd6, 0x3e,
  0xde, 0x4a, 0x93, 0x3d, 0x6a, 0x1d, 0x6b, 0x3e, 0xec, 0xc6, 0x1e, 0xbd,
  0x3e, 0xdc, 0x98, 0x3d, 0xe0, 0x7a, 0x65, 0xbe, 0xd7, 0xaa, 0xfa, 0xbc,
  0x31, 0xa1, 0x84, 0xbe, 0x82, 0xc0, 0xbe, 0xbd, 0xa3, 0x2e, 0x33, 0x3e,
  0x0e, 0xab, 0x40, 0x3c, 0x09, 0x22, 0xbe, 0x3e, 0xa1, 0xe0, 0x10, 0xbe,
  0xab, 0xed, 0xe6, 0xbe, 0x3a, 0x76, 0x21, 0xbc, 0xbd, 0x47, 0x1a, 0xbe,
  0x5f, 0x7b, 0xb8, 0xbd, 0xfe, 0xaa, 0x8a, 0x3e, 0xfc, 0xbb, 0x06, 0x3e,
  0xe4, 0x42, 0x83, 0x3e, 0x9c, 0xc0, 0xb0, 0xbd, 0xff, 0x6e, 0x41, 0xbe,
  0xa4, 0x1c, 0xf6, 0xbd, 0xb1, 0x2a, 0xf9, 0xbc, 0xb8, 0x9f, 0x34, 0xbe,
  0x65, 0x9d, 0xa0, 0xbe, 0xec, 0x5d, 0x8c, 0xbe, 0x4b, 0x90, 0x08, 0xbf,
  0x68, 0x9b, 0x94, 0xbd, 0xb7, 0x4c, 0x1a, 0xbd, 0xd4, 0xf6, 0x03, 0xbe,
  0xf7, 0x05, 0x4e, 0x3b, 0x19, 0xc4, 0x12, 0x3e, 0x20, 0xac, 0x43, 0xbc,
  0x86, 0xc7, 0x7f, 0x3d, 0x22, 0x04, 0x8c, 0x3e, 0xaf, 0x10, 0x61, 0xbb,
  0x19, 0xd8, 0x6c, 0x3d, 0x0a, 0xe6, 0x57, 0xbe, 0x59, 0xe1, 0x64, 0xbd,
  0x28, 0x5c, 0x8d, 0xbe, 0x83, 0x5b, 0x98, 0xbd, 0x1f, 0x9f, 0x53, 0xbe,
  0x4b, 0x3c, 0x8d, 0xbe, 0x0e, 0x29, 0x98, 0xbe, 0xeb, 0xa8, 0x00, 0x3c,
  0xc2, 0x99, 0x7a, 0xbe, 0x29, 0xd4, 0xcc, 0xbb, 0x2d, 0x6b, 0x07, 0xbe,
  0xfe, 0x5d, 0x97, 0x3d, 0xf1, 0x2a, 0x94, 0xbb, 0x52, 0xcc, 0xbd, 0xbd,
  0xaa, 0xa8, 0x2f, 0xbe, 0x97, 0x6d, 0x93, 0x3e, 0xa4, 0xf0, 0x34, 0x3b,
  0x9d, 0xce, 0x37, 0xbe, 0xba, 0x40, 0x1a, 0x3f, 0x46, 0xe3, 0x62, 0xbe,
  0x43, 0x12, 0x53, 0x3e, 0x32, 0xc3, 0xb9, 0x3e, 0xeb, 0xa8, 0xab, 0xbd,
  0x1a, 0xc3, 0xd7, 0xbe, 0xde, 0xfd, 0xc8, 0x3d, 0x63, 0x43, 0x4c, 0xbe,
  0x92, 0x20, 0x97, 0xbd, 0x5f, 0x1f, 0x0d, 0x3d, 0x7b, 0xe6, 0xdb, 0xbc,
  0x28, 0xf7, 0x75, 0x3d, 0x56, 0x51, 0x0c, 0xbe, 0xab, 0x53, 0x2a, 0xbf,
  0x8a, 0x0c, 0x7d, 0x3c, 0x52, 0xa5, 0xe0, 0xbb, 0x8c, 0x94, 0x7e, 0xbe,
  0x73, 0x18, 0x6f, 0x3e, 0xb5, 0x46, 0x8f, 0xbd, 0x52, 0xbc, 0x37, 0x3e,
  0x1e, 0x4f, 0x27, 0xbd, 0xec, 0x46, 0x2f, 0xbc, 0xd0, 0x5b, 0xa2, 0xbd,
  0xaf, 0x2c, 0x2c, 0x3d, 0x21, 0x6f, 0xb9, 0xbd, 0x0f, 0x0c, 0x44, 0xbe,
  0x3e, 0x02, 0xca, 0x3d, 0x44, 0xaa, 0xb0, 0xbd, 0x2e, 0x94, 0x40, 0xbd,
  0xd5, 0xa9, 0x06, 0x3e, 0xbe, 0x5e, 0x50, 0xbe, 0xd7, 0x73, 0x7e, 0x3d,
  0x08, 0x9b, 0x7d, 0xbe, 0xe1, 0x92, 0x1d, 0x3e, 0x6c, 0x31, 0xca, 0x3e,
  0x60, 0xcd, 0x0c, 0x3e, 0x1c, 0x14, 0xaa, 0x3d, 0x24, 0x99, 0xe8, 0x3d,
  0xa9, 0x2d, 0x98, 0xbe, 0x73, 0xb4, 0x7a, 0xbc, 0x95, 0xbb, 0x75, 0xbe,
  0xe6, 0xcf, 0x76, 0x3d, 0xb8, 0x57, 0xa9, 0x3e, 0x3d, 0x87, 0x0f, 0x3e,
  0x01, 0xc6, 0x16, 0x3e, 0xe4, 0x46, 0xdb, 0xbc, 0x73, 0xba, 0x52, 0xbe,
  0x0d, 0x52, 0x19, 0xbd, 0x8e, 0xcb, 0x72, 0xbd, 0x40, 0x80, 0x6c, 0xbe,
  0xce, 0x38, 0x1e, 0x3d, 0x03, 0x02, 0xcf, 0x3e, 0x4e, 0xb5, 0x67, 0xbe,
  0xf0, 0x4c, 0x39, 0xbd, 0x96, 0x2c, 0x39, 0xbe, 0x49, 0xc4, 0x43, 0xbd,
  0xea, 0x1b, 0xae, 0xbc, 0xc9, 0xd9, 0xe2, 0xbe, 0xce, 0xcc, 0xc6, 0xbe,
  0x1d, 0x8a, 0x53, 0x3e, 0x84, 0xf4, 0xa3, 0xbe, 0x8e, 0x03, 0xe7, 0xbd,
  0x14, 0x91, 0xe9, 0x3a, 0x3e, 0xaf, 0x0a, 0xbd, 0x60, 0xc3, 0x7a, 0x3b,
  0xcb, 0x78, 0x4d, 0x3e, 0xa3, 0x3d, 0xe4, 0x3e, 0x97, 0xa1, 0x59, 0x3d,
  0xe4, 0x59, 0xd7, 0xbd, 0xc7, 0xe6, 0x9a, 0x3b, 0x89, 0x32, 0x37, 0xbd,
  0xea, 0x90, 0x73, 0xbb, 0xf5, 0x26, 0xc0, 0xbd, 0x62, 0x3c, 0xa0, 0xbe,
  0x72, 0x6d, 0xc0, 0xbe, 0xd3, 0xf7, 0x65, 0xbd, 0x18, 0x5e, 0x9f, 0xbe,
  0x87, 0xc3, 0x0b, 0xbe, 0x9f, 0x3b, 0x9e, 0x3c, 0x7a, 0xf1, 0x14, 0xbd,
  0x07, 0xcc, 0xf1, 0xbe, 0x4a, 0x95, 0x83, 0xbe, 0x94, 0x09, 0x10, 0xbf,
  0x4a, 0xd4, 0x4f, 0xbe, 0xed, 0xfa, 0x7c, 0xbe, 0x5b, 0x3a, 0x57, 0x3d,
  0x6e, 0x79, 0x51, 0x3e, 0x4f, 0xd1, 0xd1, 0xbc, 0xef, 0x26, 0xd3, 0x3c,
  0x62, 0x3e, 0xa5, 0x3c, 0x68, 0x08, 0x4d, 0xbf, 0xcb, 0x08, 0x3d, 0xbd,
  0xaa, 0xd6, 0x64, 0xbf, 0xf3, 0xee, 0xc7, 0xbd, 0xee, 0xbe, 0xc6, 0x3d,
  0x39, 0xad, 0xa2, 0xbd, 0x4f, 0x17, 0xd4, 0xbe, 0x48, 0x86, 0x23, 0xbf,
  0xd5, 0x24, 0x26, 0xbf, 0xba, 0x57, 0xe2, 0xbe, 0x7b, 0x59, 0x0c, 0xbe,
  0x7c, 0x13, 0xc6, 0xbe, 0xec, 0x16, 0xb3, 0xbe, 0x45, 0x60, 0xb1, 0xbb,
  0x00, 0x03, 0x5f, 0x3e, 0xe4, 0x59, 0x28, 0x3e, 0x9e, 0x78, 0xbf, 0x3d,
  0x04, 0x34, 0x28, 0xbd, 0xd6, 0xc7, 0x52, 0x3e, 0x33, 0xeb, 0xca, 0x3c,
  0x62, 0x28, 0x47, 0xbd, 0xa0, 0x3b, 0xe0, 0x3c, 0x0c, 0xaf, 0x42, 0xbe,
  0xed, 0x18, 0x41, 0xbe, 0x0c, 0xe9, 0x9c, 0xbe, 0x11, 0xd1, 0x01, 0xbf,
  0xf9, 0xf0, 0x05, 0xbd, 0x78, 0x1c, 0x8e, 0xbc, 0x4e, 0x5d, 0x72, 0xbd,
  0x81, 0xce, 0xcc, 0x3c, 0x90, 0xb8, 0x4a, 0x3d, 0x84, 0x72, 0x62, 0xb7,
  0x34, 0xc5, 0xea, 0x3d, 0x74, 0xa2, 0x86, 0xbe, 0xa4, 0x06, 0x64, 0x3e,
  0x55, 0x48, 0xde, 0x3a, 0xf4, 0x1b, 0x76, 0x3e, 0x04, 0x13, 0xb4, 0xbb,
  0xd7, 0xa4, 0x57, 0xbe, 0x5c, 0xb9, 0x7d, 0xbe, 0xb4, 0x24, 0xe2, 0xbe,
  0xe9, 0xe1, 0x98, 0xbd, 0xc3, 0x57, 0x9f, 0xbe, 0x7d, 0x6e, 0x77, 0x3c,
  0x39, 0x4c, 0x32, 0xbf, 0x7c, 0x47, 0x48, 0x39, 0x67, 0x93, 0x1f, 0x3c,
  0x5e, 0x49, 0x1e, 0x3e, 0xea, 0x29, 0x3d, 0xbf, 0xcd, 0x62, 0xe2, 0x3d,
  0x51, 0xef, 0x21, 0xbf, 0x5d, 0x8d, 0x7f, 0xbc, 0x44, 0xfe, 0x92, 0xbe,
  0x4f, 0x3f, 0x06, 0x3b, 0xed, 0x6e, 0x48, 0x3d, 0x8e, 0x67, 0x05, 0x3e,
  0xc7, 0xb2, 0xdb, 0xbe, 0x50, 0x86, 0xe9, 0x3d, 0xec, 0x90, 0xe5, 0xbe,
  0x46, 0xc4, 0x17, 0xbd, 0xbe, 0x66, 0x13, 0xbe, 0x11, 0x30, 0x90, 0x3d,
  0xcf, 0xc9, 0xac, 0xbe, 0x73, 0x68, 0x8b, 0x3b, 0x73, 0x1c, 0x71, 0xbe,
  0xe9, 0xb8, 0x29, 0x3d, 0x1e, 0x48, 0x0b, 0xbe, 0x0a, 0x21, 0x78, 0xbd,
  0x13, 0x33, 0x1a, 0xbe, 0x36, 0xe2, 0x51, 0xbe, 0x39, 0x80, 0x3a, 0x3d,
  0xf1, 0xa8, 0x9a, 0xbe, 0x17, 0x62, 0x86, 0x3e, 0x4b, 0xa1, 0x4a, 0xbe,
  0x87, 0x5d, 0x09, 0xbe, 0x3f, 0xdf, 0x49, 0xbe, 0xb5, 0x63, 0x51, 0xbe,
  0xc6, 0x7c, 0x65, 0xbe, 0xea, 0x2d, 0x7f, 0xbe, 0x22, 0x58, 0x9a, 0xbc,
  0x46, 0x83, 0x0f, 0xbe, 0x8a, 0xc6, 0xa4, 0xbd, 0x61, 0x18, 0x62, 0xbe,
  0xa7, 0x8f, 0xb6, 0xbe, 0xd2, 0x75, 0x82, 0xbd, 0xca, 0xa1, 0xdc, 0x3c,
  0xa5, 0x7a, 0x8d, 0xbc, 0xe0, 0x6c, 0x30, 0xbe, 0x67, 0x7a, 0x65, 0x3c,
  0x6c, 0x25, 0x08, 0x3d, 0x90, 0xf1, 0x15, 0xbe, 0x20, 0xcf, 0xa2, 0xbe,
  0xa9, 0x69, 0x66, 0xbd, 0x3c, 0xcb, 0x57, 0xbe, 0x7b, 0x28, 0x56, 0x3c,
  0xd8, 0xb3, 0x89, 0xbe, 0x31, 0xba, 0x37, 0xbe, 0xde, 0xd9, 0x1a, 0x3d,
  0x30, 0x26, 0x8c, 0x3c, 0xcd, 0xd3, 0xa4, 0x3e, 0x44, 0x9f, 0xeb, 0xbc,
  0x4f, 0x83, 0xab, 0xbd, 0xec, 0x95, 0x14, 0xbd, 0x94, 0x8a, 0xc5, 0xbc,
  0xe7, 0xbf, 0xe6, 0x3d, 0xcd, 0x15, 0xc5, 0xbe, 0x9e, 0xeb, 0xa6, 0xbd,
  0xa7, 0xde, 0xd6, 0xbe, 0x35, 0x5a, 0xc0, 0x3d, 0xef, 0x31, 0x83, 0xbe,
  0x3c, 0xfd, 0x22, 0xbe, 0xf3, 0x07, 0xc6, 0xbc, 0xbe, 0x9f, 0x42, 0xbc,
  0xbd, 0x12, 0x45, 0x3e, 0x17, 0x32, 0x5a, 0x3d, 0xd8, 0x93, 0xbf, 0xbf,
  0x76, 0x7b, 0x71, 0x3a, 0x5e, 0x59, 0x01, 0xbe, 0xed, 0xf8, 0x9d, 0xbe,
  0x98, 0x59, 0x58, 0x3e, 0x13, 0xfc, 0x61, 0xbe, 0x38, 0x8c, 0x19, 0x3f,
  0x5a, 0x92, 0x4a, 0xbe, 0x8e, 0x48, 0xaa, 0xbe, 0x25, 0x43, 0x5c, 0xbc,
  0x7a, 0xbd, 0xd6, 0x3c, 0xd6, 0x27, 0xfc, 0xbd, 0x64, 0x2b, 0xa0, 0x3e,
  0xee, 0x69, 0x93, 0x3d, 0xdf, 0x47, 0x3f, 0x3e, 0xac, 0x7f, 0x0b, 0xbe,
  0xc8, 0x3e, 0xd8, 0x3c, 0x66, 0xfe, 0x0b, 0xbe, 0xd3, 0xba, 0x10, 0xbe,
  0x90, 0x22, 0x60, 0x3d, 0x7c, 0x1f, 0xdb, 0x3d, 0x60, 0x71, 0x04, 0xbd,
  0x1a, 0x3e, 0x87, 0x3d, 0x79, 0x6a, 0x0e, 0x3e, 0x21, 0x9d, 0xf9, 0xbd,
  0x6f, 0x15, 0x6d, 0xbe, 0xe2, 0xab, 0x0c, 0xbe, 0x4a, 0x0b, 0x7e, 0x3e,
  0x4c, 0xa2, 0x75, 0xbd, 0xce, 0xc6, 0x02, 0x3e, 0xb1, 0xd8, 0x60, 0xbc,
  0xa0, 0x6b, 0x3d, 0xbe, 0x08, 0xc8, 0xa1, 0x3d, 0xb9, 0xa1, 0xfd, 0xbd,
  0x3b, 0xe9, 0x2c, 0xbe, 0x61, 0x46, 0x25, 0xbe, 0xbd, 0xf8, 0xc9, 0x3c,
  0x11, 0x10, 0x21, 0x3e, 0x2c, 0x6c, 0xd9, 0x3d, 0x3c, 0xb6, 0x59, 0x3e,
  0x74, 0x62, 0x99, 0xbd, 0xf3, 0xc6, 0xf0, 0xbd, 0x32, 0x49, 0x12, 0xbe,
  0x66, 0xf9, 0x0b, 0x3e, 0xdb, 0xc7, 0xc2, 0x3d, 0xbe, 0x19, 0x31, 0x3c,
  0x49, 0x0d, 0xed, 0xbc, 0x20, 0x6f, 0x02, 0x3e, 0x58, 0x43, 0x53, 0x3e,
  0xae, 0xaf, 0x9b, 0xbd, 0xe6, 0xf8, 0x83, 0xbd, 0xa7, 0xbe, 0x37, 0xbe,
  0x11, 0xbb, 0xb8, 0xbe, 0xd7, 0xed, 0xa8, 0xbe, 0x26, 0x5d, 0x7a, 0xbe,
  0x4e, 0x09, 0xfe, 0xbd, 0x58, 0xa6, 0xd3, 0xbd, 0xb6, 0x2f, 0xbe, 0xbd,
  0xcf, 0xf9, 0x39, 0xbd, 0x83, 0xb4, 0xcd, 0x3d, 0xf3, 0xc8, 0x93, 0xbd,
  0x99, 0x92, 0x26, 0xbe, 0xf0, 0x5e, 0x88, 0xbd, 0x4b, 0xad, 0x8f, 0xbd,
  0x15, 0x6f, 0x57, 0xbd, 0x58, 0x5f, 0x67, 0xbc, 0x88, 0x7d, 0x0e, 0xbc,
  0xb1, 0xef, 0x03, 0xbe, 0xb0, 0x71, 0x8e, 0x3d, 0x69, 0x7a, 0x69, 0x3f,
  0x6f, 0xfa, 0x23, 0x3d, 0xeb, 0xa4, 0x48, 0x3e, 0xdf, 0xb2, 0x3d, 0xbd,
  0x8a, 0x63, 0xb4, 0x3a, 0xa5, 0x9d, 0x16, 0x3d, 0x21, 0xf9, 0x13, 0x3d,
  0x8d, 0xd1, 0x4e, 0xbd, 0xcd, 0xa4, 0xaf, 0xbc, 0x93, 0x53, 0xe8, 0x3d,
  0xcb, 0xfd, 0x8b, 0xbd, 0x1a, 0xd9, 0xb6, 0x3d, 0x65, 0xee, 0x25, 0xbe,
  0x5d, 0xcf, 0x87, 0x3b, 0xd1, 0x51, 0x1f, 0xbd, 0x3f, 0xcd, 0x94, 0xbe,
  0x80, 0xc1, 0x89, 0x3b, 0xa9, 0x87, 0x1c, 0x3e, 0xeb, 0x44, 0x70, 0xbe,
  0xe5, 0x90, 0x0d, 0xbc, 0xf0, 0xc1, 0x7d, 0x3d, 0x65, 0xac, 0x5f, 0xbd,
  0x9d, 0x8c, 0xca, 0xbb, 0xc6, 0x02, 0x68, 0xbd, 0x23, 0x76, 0x9e, 0xbd,
  0x25, 0x2a, 0x3f, 0x3d, 0x65, 0xd6, 0x81, 0xbd, 0x20, 0x1c, 0x11, 0xbe,
  0xcc, 0xda, 0xe2, 0x3e, 0x6e, 0x7d, 0xf3, 0x3b, 0xfb, 0x5d, 0xee, 0x3c,
  0x02, 0xbb, 0x65, 0x3b, 0x92, 0x49, 0xee, 0x3d, 0x2d, 0x02, 0xa5, 0xbc,
  0x51, 0xff, 0x2a, 0xbe, 0xf4, 0xec, 0xc9, 0xbc, 0x1d, 0x3f, 0x79, 0xbd,
  0xc6, 0x96, 0x6b, 0x3d, 0x02, 0x62, 0x7c, 0xbe, 0x42, 0xd1, 0x5a, 0x3e,
  0x73, 0x69, 0x60, 0x3d, 0xad, 0x16, 0xd1, 0x3d, 0xdc, 0xb8, 0x89, 0xbd,
  0xe7, 0xad, 0xb5, 0x3c, 0x7c, 0x59, 0x38, 0xbe, 0xc6, 0xc3, 0xac, 0xbc,
  0x66, 0x82, 0xc0, 0xbd, 0x18, 0x32, 0x13, 0xbf, 0x68, 0xc2, 0x72, 0xbd,
  0x0c, 0xa5, 0x19, 0xbc, 0x98, 0x3c, 0x63, 0xbd, 0x2a, 0x3f, 0x57, 0xbd,
  0x2d, 0xef, 0x7a, 0xbd, 0x13, 0x69, 0xad, 0xbd, 0xc3, 0x43, 0xcb, 0x3e,
  0x76, 0x00, 0xd2, 0xbd, 0xb9, 0xb9, 0x74, 0x3e, 0x4d, 0xb6, 0x69, 0x3d,
  0x66, 0x6b, 0xdc, 0xbc, 0x52, 0x77, 0x09, 0xbe, 0x42, 0xd0, 0xf8, 0xbc,
  0x28, 0x6b, 0x72, 0xbe, 0x95, 0x75, 0x05, 0xbe, 0xca, 0x6a, 0x14, 0x3d,
  0x10, 0xe1, 0x91, 0x3e, 0xb4, 0x1e, 0xd0, 0x3d, 0x10, 0xa8, 0x1a, 0x3d,
  0xf9, 0x54, 0x03, 0xbe, 0x28, 0x7d, 0xb1, 0xbd, 0x52, 0x4b, 0xe5, 0xbe,
  0xe1, 0xbc, 0x39, 0xbe, 0x59, 0xe7, 0xac, 0xbe, 0x66, 0x99, 0x09, 0xbf,
  0x44, 0xa1, 0x3c, 0xbf, 0xaf, 0x07, 0x92, 0xbd, 0x33, 0xa7, 0x02, 0xbf,
  0xc6, 0xde, 0xff, 0xff, 0x10, 0x00, 0x00, 0x00, 0x08, 0x00, 0x00, 0x00,
  0x1c, 0x00, 0x00, 0x00, 0x38, 0x00, 0x00, 0x00, 0x04, 0x00, 0x00, 0x00,
  0x10, 0x00, 0x00, 0x00, 0x04, 0x00, 0x00, 0x00, 0x01, 0x00, 0x00, 0x00,
  0x08, 0x00, 0x00, 0x00, 0x1a, 0x00, 0x00, 0x00, 0x73, 0x65, 0x71, 0x75,
  0x65, 0x6e, 0x74, 0x69, 0x61, 0x6c, 0x2f, 0x63, 0x6f, 0x6e, 0x76, 0x32,
  0x64, 0x5f, 0x31, 0x2f, 0x43, 0x6f, 0x6e, 0x76, 0x32, 0x44, 0x00, 0x00,
  0xc0, 0xde, 0xff, 0xff, 0xb6, 0xdf, 0xff, 0xff, 0x04, 0x00, 0x00, 0x00,
  0x80, 0x01, 0x00, 0x00, 0xe0, 0xb4, 0xf7, 0x3d, 0x10, 0x2c, 0xc1, 0x3d,
  0x76, 0xf6, 0x72, 0x3d, 0x89, 0x2b, 0x30, 0x3e, 0xee, 0x8a, 0x07, 0x3e,
  0xdd, 0x72, 0x9e, 0x3d, 0x7d, 0xcc, 0xaf, 0xbc, 0xd7, 0x26, 0x89, 0x3d,
  0x73, 0x74, 0x9c, 0x3d, 0x5e, 0x46, 0x47, 0xbe, 0x41, 0x8f, 0x7d, 0xbe,
  0xb5, 0xa4, 0x09, 0xbe, 0xec, 0x71, 0x76, 0xbe, 0x7e, 0xae, 0xcb, 0xbd,
  0xca, 0xb4, 0xac, 0xbc, 0x32, 0x5f, 0x5f, 0xbe, 0xe6, 0x00, 0xc7, 0xbd,
  0xef, 0xe5, 0x98, 0xbd, 0xe0, 0xa9, 0x31, 0xbe, 0xa0, 0x1c, 0xf4, 0x39,
  0x49, 0x2a, 0x79, 0x3d, 0x09, 0x8e, 0x7a, 0xbe, 0xe2, 0x3a, 0x16, 0x3d,
  0x79, 0xa5, 0xf1, 0x3d, 0xa8, 0x66, 0xaf, 0xbd, 0x95, 0xb6, 0x55, 0x3d,
  0xc8, 0x91, 0xfd, 0x3c, 0x11, 0xd3, 0x84, 0xbe, 0xa0, 0x61, 0xd4, 0xbe,
  0xfe, 0x60, 0x21, 0xbd, 0xf2, 0x54, 0xa9, 0x3e, 0x4b, 0x73, 0xe9, 0x3d,
  0xbe, 0xa3, 0x5d, 0x3d, 0x34, 0x9b, 0x2f, 0x3e, 0x78, 0xac, 0x4d, 0x3e,
  0xb6, 0xe5, 0xdd, 0xbd, 0xff, 0x28, 0xd4, 0x3e, 0x55, 0x04, 0x92, 0x3e,
  0x7e, 0xab, 0x2e, 0xbe, 0x20, 0x1c, 0x8f, 0xbe, 0x45, 0x4e, 0x16, 0x3e,
  0xb6, 0x6f, 0x8c, 0xbc, 0x84, 0x67, 0xca, 0xbd, 0x29, 0xb2, 0xc9, 0xbe,
  0x8d, 0x4e, 0xd4, 0x3d, 0x6d, 0x23, 0xb7, 0xbd, 0x93, 0x8d, 0xc6, 0xbd,
  0x8a, 0xd9, 0x0e, 0x3b, 0x25, 0xe7, 0x52, 0x3e, 0xe0, 0xc2, 0x03, 0x3e,
  0x09, 0xac, 0x0d, 0xbe, 0x6a, 0x9e, 0xd6, 0xbd, 0xd6, 0x03, 0x59, 0xbe,
  0x53, 0x06, 0xe0, 0xbe, 0xba, 0xf3, 0x9f, 0xbd, 0x3a, 0xb9, 0x88, 0xbd,
  0x22, 0x7c, 0xb0, 0x3e, 0xf2, 0xa6, 0x2f, 0xbc, 0x84, 0xcd, 0xda, 0x3d,
  0x08, 0x40, 0x2d, 0x3e, 0x58, 0xe1, 0x6c, 0xbe, 0x37, 0xdf, 0x5d, 0x3e,
  0x3b, 0xdf, 0x88, 0x3e, 0x70, 0x76, 0x7c, 0xbe, 0xad, 0x97, 0x29, 0x3e,
  0x92, 0xed, 0x6c, 0x3d, 0xbb, 0x91, 0x86, 0xbd, 0x96, 0xed, 0xb9, 0xbe,
  0xc7, 0x7f, 0x89, 0xbe, 0x73, 0x55, 0x08, 0x3f, 0x90, 0xd4, 0x7d, 0xbd,
  0x32, 0x7e, 0x89, 0xbd, 0xfe, 0xaa, 0x29, 0xbb, 0xc2, 0x5c, 0x6c, 0x3e,
  0xc2, 0x31, 0x85, 0xbe, 0x5f, 0x0c, 0xca, 0x3e, 0x44, 0x2c, 0x01, 0xbe,
  0x59, 0x7a, 0xe4, 0x3c, 0xce, 0x68, 0xe3, 0xbd, 0xc9, 0x10, 0x87, 0xbe,
  0x90, 0x47, 0x41, 0x3e, 0xdd, 0x1f, 0xb9, 0x3d, 0x7f, 0xc9, 0x0e, 0x3d,
  0x4e, 0xc2, 0xa2, 0xbd, 0xec, 0x22, 0x21, 0xbe, 0x2f, 0xde, 0x4e, 0xbe,
  0x0a, 0x81, 0x78, 0xbd, 0xe5, 0x69, 0xcb, 0xbc, 0xc5, 0x31, 0x88, 0xbd,
  0xe6, 0xa1, 0x0e, 0xbe, 0x96, 0xf4, 0x90, 0x3d, 0xd9, 0xa0, 0x73, 0xbd,
  0xe5, 0xcb, 0xe3, 0x3b, 0xe7, 0x7c, 0x88, 0xbd, 0x60, 0x39, 0x15, 0xbe,
  0x09, 0xf7, 0x78, 0x3d, 0x9e, 0xe0, 0xff, 0xff, 0x10, 0x00, 0x00, 0x00,
  0x07, 0x00, 0x00, 0x00, 0x1c, 0x00, 0x00, 0x00, 0x38, 0x00, 0x00, 0x00,
  0x04, 0x00, 0x00, 0x00, 0x08, 0x00, 0x00, 0x00, 0x04, 0x00, 0x00, 0x00,
  0x03, 0x00, 0x00, 0x00, 0x01, 0x00, 0x00, 0x00, 0x18, 0x00, 0x00, 0x00,
  0x73, 0x65, 0x71, 0x75, 0x65, 0x6e, 0x74, 0x69, 0x61, 0x6c, 0x2f, 0x63,
  0x6f, 0x6e, 0x76, 0x32, 0x64, 0x2f, 0x43, 0x6f, 0x6e, 0x76, 0x32, 0x44,
  0x00, 0x00, 0x00, 0x00, 0x98, 0xe0, 0xff, 0xff, 0x8e, 0xe1, 0xff, 0xff,
  0x04, 0x00, 0x00, 0x00, 0x00, 0x01, 0x00, 0x00, 0xb5, 0x06, 0xe9, 0x3c,
  0xc3, 0x46, 0x2e, 0x3e, 0x21, 0xfc, 0x89, 0xbc, 0x84, 0x7c, 0x0b, 0xbe,
  0x22, 0xfb, 0x81, 0xbc, 0x8b, 0x56, 0x61, 0x3d, 0x9f, 0x0e, 0x30, 0xbe,
  0x21, 0x98, 0x84, 0x3e, 0xee, 0xd3, 0x01, 0xbe, 0x56, 0x8f, 0xa8, 0x3e,
  0x7b, 0x69, 0x80, 0x3e, 0x8f, 0x87, 0x47, 0xbe, 0xb0, 0x05, 0x06, 0x3e,
  0x8b, 0xdd, 0x7f, 0x3e, 0x13, 0xd3, 0x83, 0x3d, 0xe4, 0x37, 0x13, 0xbe,
  0xcd, 0x5f, 0xf2, 0xbd, 0x40, 0xbd, 0x4e, 0x3e, 0x5e, 0xe9, 0x9d, 0x3c,
  0x55, 0x9f, 0x16, 0xbd, 0x35, 0x21, 0x29, 0x3c, 0x5e, 0x3d, 0xa2, 0x3b,
  0x60, 0x44, 0xeb, 0xbd, 0x20, 0x63, 0x98, 0x3e, 0xcd, 0x9b, 0x38, 0xbe,
  0xe1, 0x32, 0xad, 0x3e, 0x22, 0x42, 0x7d, 0x3e, 0xd0, 0x74, 0x18, 0xbe,
  0x38, 0xda, 0x19, 0x3e, 0xca, 0x79, 0x91, 0x3e, 0x7f, 0xab, 0xae, 0xbe,
  0xd8, 0xbf, 0x34, 0xbe, 0x6f, 0x12, 0x9a, 0xbf, 0x2b, 0xd2, 0x01, 0x3e,
  0x05, 0x13, 0x3a, 0xbc, 0xa6, 0xc7, 0x65, 0xbe, 0xac, 0x5c, 0x35, 0xbc,
  0x61, 0x52, 0x0c, 0xbe, 0x2f, 0x55, 0xdd, 0xbd, 0xd7, 0xde, 0x85, 0x3e,
  0x60, 0xc7, 0x87, 0xbe, 0x0d, 0x45, 0x2f, 0xba, 0x22, 0xbd, 0x1f, 0x3e,
  0xb8, 0x45, 0x89, 0xbe, 0xa9, 0xa5, 0x50, 0x3d, 0x10, 0xbf, 0x64, 0x3e,
  0x2b, 0x8f, 0x3a, 0xbf, 0x48, 0xd8, 0x5a, 0xbe, 0xf5, 0x99, 0xf6, 0xbc,
  0x38, 0xc2, 0x27, 0x3e, 0x3e, 0xbf, 0x70, 0x3d, 0xa4, 0xd2, 0xea, 0xbd,
  0x27, 0xba, 0x21, 0xbe, 0x07, 0x88, 0xe7, 0x3b, 0x6d, 0xeb, 0x6d, 0xbe,
  0xe6, 0xb6, 0xb9, 0x3e, 0x6b, 0xe4, 0x7e, 0xbe, 0x4d, 0x22, 0xc1, 0x3e,
  0x7b, 0x1b, 0x12, 0x3e, 0xf8, 0xc4, 0x18, 0xbe, 0x7a, 0x6e, 0x88, 0x3c,
  0x66, 0xb6, 0x32, 0x3e, 0xc2, 0xae, 0x0a, 0xbe, 0x6b, 0x48, 0x83, 0xbe,
  0xf6, 0xe1, 0xff, 0xff, 0x10, 0x00, 0x00, 0x00, 0x06, 0x00, 0x00, 0x00,
  0x14, 0x00, 0x00, 0x00, 0x30, 0x00, 0x00, 0x00, 0x02, 0x00, 0x00, 0x00,
  0x04, 0x00, 0x00, 0x00, 0x10, 0x00, 0x00, 0x00, 0x19, 0x00, 0x00, 0x00,
  0x73, 0x65, 0x71, 0x75, 0x65, 0x6e, 0x74, 0x69, 0x61, 0x6c, 0x2f, 0x64,
  0x65, 0x6e, 0x73, 0x65, 0x5f, 0x31, 0x2f, 0x4d, 0x61, 0x74, 0x4d, 0x75,
  0x6c, 0x00, 0x00, 0x00, 0xe8, 0xe1, 0xff, 0xff, 0xde, 0xe2, 0xff, 0xff,
  0x04, 0x00, 0x00, 0x00, 0x00, 0x1c, 0x00, 0x00, 0x51, 0xcb, 0xc7, 0xbe,
  0x5e, 0x0c, 0x6d, 0xbe, 0x4e, 0xc4, 0x70, 0xbe, 0x39, 0xd5, 0x40, 0xbe,
  0x19, 0x70, 0x16, 0xbe, 0xc8, 0x40, 0x66, 0xbe, 0x1d, 0x09, 0xca, 0xbe,
  0xd8, 0xa2, 0x99, 0x3d, 0xee, 0xfb, 0x2a, 0xbe, 0xa4, 0xad, 0x99, 0x3f,
  0x4b, 0xe5, 0x73, 0x3d, 0x12, 0x6d, 0x8b, 0xbe, 0x4c, 0x83, 0xf7, 0xbd,
  0x75, 0x44, 0x21, 0xbe, 0xce, 0x40, 0x79, 0xbe, 0xc0, 0xa9, 0xd3, 0x3e,
  0x06, 0x0f, 0x7c, 0x3c, 0xc5, 0x9b, 0x32, 0xbe, 0xd5, 0xaf, 0x2f, 0xbe,
  0x31, 0x67, 0x0a, 0xbe, 0xbe, 0xd0, 0x4b, 0x3e, 0x01, 0xfc, 0x7b, 0xbe,
  0x14, 0x3f, 0x79, 0x3e, 0x4f, 0x99, 0x0d, 0x3e, 0x55, 0x10, 0x1d, 0x3e,
  0x3d, 0x8e, 0x43, 0x3f, 0x87, 0x44, 0x26, 0x3e, 0x3c, 0x58, 0x49, 0x3c,
  0xd1, 0x64, 0x67, 0xbe, 0x3d, 0xfc, 0x8a, 0xbe, 0x70, 0xf2, 0x37, 0xbe,
  0xcc, 0x7f, 0xff, 0x3f, 0x3a, 0x0b, 0x29, 0xbe, 0x58, 0xcd, 0x02, 0xbc,
  0x1e, 0x2f, 0x1f, 0xbe, 0x03, 0x90, 0x6a, 0x3d, 0xcc, 0x4b, 0x2a, 0x3d,
  0x32, 0x05, 0xde, 0x3c, 0xa3, 0x66, 0xa0, 0x3c, 0x83, 0x8a, 0x15, 0xbd,
  0xe5, 0x86, 0x25, 0x3e, 0xe9, 0x81, 0x44, 0x3f, 0xbd, 0xfe, 0x92, 0xbd,
  0x42, 0x6a, 0x78, 0xbe, 0x05, 0xcb, 0x73, 0xbd, 0x37, 0x42, 0x8c, 0xbd,
  0x73, 0x3c, 0x05, 0xbe, 0x62, 0x31, 0xa3, 0x3f, 0x5f, 0x92, 0x32, 0xbe,
  0x3f, 0xd1, 0x44, 0xbe, 0xcd, 0x0b, 0x8a, 0xbd, 0xe5, 0x76, 0xf7, 0x3d,
  0x36, 0xf3, 0xc0, 0x3d, 0xff, 0xea, 0xe9, 0x3a, 0x38, 0x4a, 0xc1, 0x3d,
  0xdc, 0x23, 0x01, 0xbe, 0x0d, 0xa4, 0xcd, 0x3d, 0xf5, 0xaf, 0x67, 0x3f,
  0x50, 0x5a, 0x13, 0xbc, 0xeb, 0xfa, 0x4f, 0x3d, 0x4c, 0xb0, 0x4c, 0xbd,
  0x7a, 0xfb, 0xb4, 0xbe, 0x64, 0x3e, 0x3d, 0xbe, 0xa1, 0x12, 0xbb, 0x3f,
  0x20, 0xf9, 0x4c, 0xbd, 0xf6, 0xe3, 0x16, 0xbe, 0x1a, 0x9c, 0xe0, 0x3d,
  0xc5, 0x72, 0x09, 0xbd, 0x28, 0x76, 0x98, 0x3e, 0x27, 0xac, 0xf0, 0x3d,
  0xd5, 0x5a, 0xf9, 0xba, 0x35, 0xab, 0x39, 0x3d, 0x80, 0xb1, 0x16, 0x3f,
  0x73, 0x61, 0x48, 0x3f, 0x18, 0xee, 0x54, 0x3d, 0x2e, 0xc1, 0x19, 0xbd,
  0x68, 0x0c, 0x2f, 0xbe, 0x2f, 0xaf, 0xd0, 0xbe, 0x73, 0xd8, 0x01, 0xbf,
  0x7b, 0x32, 0xfb, 0x3f, 0x03, 0x9e, 0x38, 0xbe, 0x43, 0x66, 0xf0, 0x3b,
  0x73, 0x74, 0x8d, 0x3d, 0x2c, 0xef, 0xc7, 0xbd, 0x21, 0xc0, 0xc0, 0x3d,
  0x96, 0x89, 0xdb, 0x3d, 0xfb, 0x3d, 0x1d, 0x3d, 0x45, 0x62, 0x58, 0x3e,
  0xa7, 0x64, 0x09, 0x3e, 0x8d, 0x6b, 0x70, 0x3f, 0x34, 0xa2, 0x00, 0xbd,
  0x90, 0xf1, 0x64, 0xbd, 0xe1, 0x1e, 0xec, 0xbd, 0x5d, 0x3b, 0x30, 0xbb,
  0xa9, 0x22, 0xa2, 0xbe, 0xd4, 0x9c, 0x1b, 0x40, 0xad, 0xbc, 0xd1, 0xbe,
  0xc3, 0xf0, 0xd8, 0xbe, 0xd3, 0xd7, 0xf0, 0xbd, 0x32, 0xfe, 0xcf, 0xbe,
  0x48, 0xcd, 0x90, 0xbe, 0x61, 0x1d, 0xd6, 0xbe, 0x4c, 0x69, 0xba, 0xbe,
  0x22, 0x64, 0x16, 0x3e, 0x8f, 0x50, 0xf2, 0x3e, 0xdd, 0x04, 0xab, 0x3e,
  0xd9, 0xd8, 0x3c, 0xbe, 0x21, 0xdb, 0xab, 0xbd, 0x2e, 0x0f, 0x97, 0xbd,
  0x71, 0x77, 0xb4, 0xbe, 0xe1, 0xce, 0x75, 0xbe, 0x6f, 0xfc, 0xb6, 0x3e,
  0x00, 0x78, 0x96, 0x3c, 0x39, 0x59, 0xdb, 0x3d, 0x9b, 0x8e, 0x27, 0x3e,
  0x0d, 0x39, 0x25, 0xbd, 0xdb, 0x33, 0x73, 0xbd, 0x17, 0x2a, 0x1c, 0x3e,
  0xaa, 0x19, 0x12, 0xbe, 0x96, 0x5b, 0x87, 0xbd, 0xb8, 0xb8, 0x5d, 0x3e,
  0x0c, 0x23, 0x43, 0x3e, 0xcd, 0x4c, 0xf4, 0x3d, 0xe9, 0xc6, 0x71, 0xbd,
  0x38, 0xb3, 0x1b, 0x3e, 0x5b, 0x98, 0x0f, 0x3e, 0x94, 0xce, 0x86, 0xbd,
  0x24, 0xbe, 0xcd, 0x3e, 0xbc, 0x01, 0x5e, 0xbe, 0x1c, 0xff, 0x26, 0xbe,
  0x5c, 0x17, 0x7e, 0x3d, 0x16, 0x60, 0xca, 0xbd, 0x82, 0x14, 0x2d, 0xbe,
  0x4b, 0x6a, 0x0f, 0xbf, 0x8c, 0xc6, 0x0a, 0x3e, 0xde, 0xe2, 0x10, 0xbf,
  0x57, 0xc9, 0xa6, 0x3e, 0xf9, 0xf4, 0xda, 0x3c, 0x83, 0x37, 0xc8, 0xbc,
  0xfa, 0x67, 0x82, 0xbd, 0x12, 0xc6, 0x51, 0x3d, 0xd9, 0x14, 0xa1, 0xbe,
  0xe7, 0x0a, 0xca, 0xbe, 0x1a, 0x0d, 0xe9, 0xbe, 0x5d, 0x71, 0x82, 0xbe,
  0x90, 0x4c, 0x18, 0xbe, 0x77, 0xed, 0xd8, 0xbc, 0x5b, 0xdc, 0x95, 0x3e,
  0xf0, 0x45, 0x8b, 0xbe, 0x85, 0xd5, 0x9b, 0xbe, 0x6b, 0xb6, 0x98, 0xbe,
  0x36, 0x20, 0x00, 0xbf, 0xcc, 0x0c, 0xcc, 0xbb, 0x4d, 0x00, 0x25, 0x3e,
  0xa2, 0x2a, 0xdc, 0xbc, 0x51, 0x51, 0x15, 0xbe, 0x43, 0x7d, 0xad, 0xbd,
  0x3a, 0x39, 0xd2, 0xbe, 0x22, 0xf6, 0xed, 0xbe, 0xfe, 0x1f, 0xbc, 0xbe,
  0x31, 0x74, 0x9e, 0xbe, 0xdc, 0x97, 0x9c, 0x3d, 0x2a, 0xfc, 0x0b, 0x3c,
  0x99, 0xab, 0xf2, 0x3d, 0xb9, 0x26, 0x75, 0xbe, 0x18, 0xdf, 0x09, 0xbe,
  0xa1, 0x44, 0x4e, 0xbd, 0x75, 0xa0, 0x4a, 0xbe, 0x2f, 0x53, 0xf2, 0x3d,
  0x89, 0xc1, 0x8a, 0xbe, 0x22, 0x57, 0xda, 0x3b, 0xe0, 0x79, 0xe1, 0xbd,
  0x50, 0xa2, 0x2c, 0x3d, 0xf9, 0x69, 0x02, 0xbe, 0xd2, 0x07, 0x41, 0xbe,
  0x4f, 0x67, 0xe0, 0xbe, 0x57, 0x74, 0x1e, 0x3d, 0xa1, 0x7a, 0xa0, 0x3b,
  0x45, 0xad, 0x45, 0x3e, 0x2e, 0x43, 0x70, 0x3d, 0xf5, 0x56, 0xf8, 0xbc,
  0x7c, 0xb1, 0x49, 0x3c, 0x38, 0xde, 0x19, 0xbe, 0x69, 0x81, 0x73, 0x3e,
  0xaa, 0x9a, 0x91, 0xbd, 0x30, 0x95, 0x2a, 0x3e, 0x3f, 0xdb, 0x85, 0x3e,
  0xb2, 0x73, 0x5d, 0xbe, 0x24, 0x01, 0x7d, 0x3c, 0xd4, 0xec, 0x24, 0xbe,
  0xa7, 0x08, 0x24, 0xbe, 0x7b, 0xfc, 0xe8, 0xbe, 0xfd, 0xad, 0x94, 0x3b,
  0x46, 0xb7, 0x5e, 0x3d, 0x01, 0xee, 0x8e, 0x3e, 0x70, 0x1c, 0x52, 0x3c,
  0xd9, 0x95, 0x2e, 0xbe, 0x06, 0x80, 0x57, 0x3d, 0x26, 0xc5, 0x2f, 0xbe,
  0x30, 0x8e, 0x10, 0x3f, 0xaa, 0xfd, 0x7b, 0x3e, 0x7e, 0x89, 0x6f, 0x3e,
  0x4f, 0x16, 0xa3, 0x3d, 0xbc, 0x4e, 0x3b, 0x3d, 0x27, 0xe3, 0x37, 0x3e,
  0x8d, 0x80, 0x2c, 0xbd, 0xe0, 0xfc, 0x00, 0x3d, 0x26, 0x20, 0x13, 0xbf,
  0x2a, 0xa3, 0x07, 0x3b, 0xeb, 0xc3, 0x1b, 0x3d, 0x56, 0x53, 0x98, 0x3e,
  0x72, 0xe0, 0xdf, 0xbc, 0x5d, 0x4f, 0x39, 0x3e, 0x81, 0xfb, 0x45, 0x3d,
  0xbe, 0x1b, 0x34, 0x3d, 0xce, 0xc6, 0x73, 0xbd, 0x5b, 0x55, 0xbf, 0x3e,
  0xcd, 0x18, 0x75, 0x3e, 0x9c, 0x23, 0xa9, 0x3d, 0x88, 0xe0, 0x20, 0x3e,
  0xed, 0xe3, 0x4c, 0x3c, 0xb7, 0xf7, 0x13, 0x3d, 0xd6, 0x33, 0xcd, 0x3c,
  0x34, 0xd0, 0xb0, 0x3d, 0x29, 0x5c, 0x05, 0xbc, 0xc0, 0x25, 0x53, 0x3b,
  0x4c, 0xcd, 0x86, 0x3d, 0x9d, 0xeb, 0xa0, 0xbc, 0x41, 0x12, 0xe5, 0xbd,
  0xd6, 0x0b, 0x04, 0xbe, 0x7c, 0x21, 0x33, 0xbe, 0x86, 0x00, 0x4d, 0xbd,
  0x91, 0x95, 0x70, 0xbe, 0xe2, 0xcb, 0x14, 0x3e, 0x8a, 0x9d, 0x88, 0x3d,
  0x21, 0xa2, 0x41, 0xbe, 0xf3, 0x8f, 0xd1, 0x3d, 0x70, 0xc1, 0x23, 0xbd,
  0x69, 0xab, 0x8b, 0xbe, 0x22, 0xca, 0x93, 0xbd, 0x66, 0x17, 0x97, 0x3d,
  0x9e, 0x02, 0x4b, 0x3e, 0x87, 0x88, 0x8e, 0xbd, 0xa9, 0x8c, 0xe1, 0x3d,
  0x28, 0xa5, 0xa4, 0xbd, 0x73, 0x86, 0xbc, 0x3d, 0x1d, 0x65, 0x23, 0xbe,
  0x86, 0x27, 0x36, 0xbe, 0x12, 0x8c, 0x24, 0x3e, 0x58, 0xe4, 0x43, 0xbd,
  0xa5, 0x93, 0xd3, 0x3d, 0xcb, 0x35, 0xa6, 0xbe, 0x30, 0x79, 0x69, 0x3e,
  0x51, 0x23, 0x0e, 0xbe, 0x1e, 0x4d, 0x80, 0xbe, 0xe6, 0x91, 0x98, 0xbe,
  0x8e, 0x8b, 0xba, 0x3d, 0x1c, 0x5d, 0x94, 0x3e, 0x81, 0x8c, 0x54, 0xbe,
  0xbb, 0xda, 0x10, 0x3e, 0x0c, 0x25, 0x33, 0x3d, 0x97, 0x77, 0x00, 0x3d,
  0x37, 0xa6, 0x31, 0x3d, 0x86, 0xe2, 0x77, 0xbd, 0xbe, 0x97, 0x41, 0xbb,
  0xe4, 0x73, 0x0c, 0x3e, 0x91, 0xf8, 0xca, 0x3d, 0x8a, 0x54, 0x36, 0xbe,
  0x24, 0xb2, 0x1f, 0x3e, 0x8f, 0xf8, 0x3d, 0xbe, 0x39, 0x83, 0xa6, 0xbe,
  0xeb, 0xaf, 0x09, 0x3b, 0x51, 0xd7, 0x80, 0x3d, 0xd4, 0x22, 0x5e, 0x3e,
  0xbb, 0x7c, 0x76, 0xbd, 0xa6, 0x58, 0x1c, 0x3d, 0xde, 0x6f, 0x02, 0xbe,
  0x2e, 0xb5, 0x69, 0x3e, 0x38, 0xb3, 0xf5, 0x3c, 0x82, 0x98, 0xfa, 0x3c,
  0xd4, 0x46, 0x38, 0xbe, 0x41, 0x7b, 0x9d, 0xbe, 0x8f, 0xc2, 0xfc, 0x3d,
  0x31, 0x6c, 0x0b, 0x3e, 0x92, 0xce, 0x10, 0x3d, 0x61, 0xf3, 0x94, 0xbd,
  0xe1, 0xee, 0x9f, 0xbe, 0x73, 0x00, 0xf0, 0xbc, 0x43, 0x03, 0xbf, 0x3d,
  0x1f, 0xcc, 0x7d, 0x3e, 0xdf, 0x28, 0x23, 0xbe, 0x68, 0xf7, 0x13, 0x3e,
  0x40, 0x70, 0xf5, 0x3d, 0x38, 0x31, 0xdc, 0xbc, 0x09, 0x5a, 0xc2, 0xbd,
  0xae, 0x14, 0x4e, 0xbe, 0x6b, 0xe9, 0xad, 0x3e, 0x79, 0xdb, 0xbe, 0xbd,
  0xf5, 0xe4, 0x14, 0x3e, 0xc1, 0x93, 0x43, 0xbe, 0x9b, 0xfe, 0x5c, 0x3e,
  0xf5, 0xc5, 0x27, 0xbe, 0xe4, 0x29, 0xc8, 0xbe, 0xca, 0x59, 0x56, 0xbe,
  0x1c, 0x5f, 0x81, 0xbd, 0x7e, 0x6b, 0xf2, 0xbb, 0x6c, 0x49, 0x86, 0x3d,
  0x1f, 0xe6, 0x34, 0x3e, 0xee, 0x23, 0x42, 0x3e, 0x1e, 0x8d, 0x2b, 0xbd,
  0xb1, 0xe8, 0x2d, 0xbe, 0x80, 0x2a, 0x0e, 0x3e, 0x8f, 0x94, 0x1f, 0xbb,
  0x09, 0x6d, 0x42, 0xbd, 0xc0, 0xdf, 0xb4, 0x3d, 0x08, 0xef, 0xd2, 0xbd,
  0xbf, 0x27, 0x99, 0xba, 0xdb, 0xca, 0x9a, 0xbd, 0xfc, 0x92, 0x4c, 0xbe,
  0xa6, 0x13, 0x8b, 0x3c, 0x16, 0x3c, 0x88, 0xbd, 0xf8, 0x22, 0x44, 0x3b,
  0x24, 0x37, 0x49, 0xbe, 0xba, 0x2d, 0x08, 0x3e, 0x2a, 0x4d, 0x09, 0xbf,
  0xc3, 0x16, 0x4b, 0xbd, 0xeb, 0x9e, 0x9e, 0xbe, 0x2d, 0xec, 0x86, 0x3c,
  0x15, 0xb7, 0x2b, 0x3d, 0x89, 0x4c, 0x9f, 0xbd, 0xa9, 0x28, 0xc0, 0x3d,
  0xa6, 0xdd, 0xc7, 0xbe, 0xd6, 0xae, 0x17, 0x3e, 0x84, 0x12, 0xa8, 0xbe,
  0x8f, 0x5f, 0x15, 0xbf, 0xfd, 0x9b, 0xe2, 0x3c, 0xc1, 0xd3, 0x81, 0x3b,
  0x85, 0x5c, 0xd8, 0xbd, 0x8c, 0x26, 0xac, 0x3c, 0xf0, 0x83, 0xc5, 0x3c,
  0x5f, 0xd6, 0x02, 0xbe, 0xa8, 0xef, 0x07, 0x3e, 0xbf, 0xad, 0xe2, 0x3c,
  0x9a, 0x2b, 0x13, 0xbf, 0x4f, 0x90, 0xbf, 0x3d, 0xef, 0x13, 0x7d, 0x3e,
  0xf6, 0x81, 0xc0, 0x3d, 0x30, 0x1b, 0x23, 0xbe, 0xbd, 0xb4, 0x90, 0xbd,
  0xf7, 0xa6, 0x22, 0xbd, 0x7f, 0x8c, 0x44, 0xbf, 0xac, 0x10, 0x00, 0xbe,
  0xe2, 0xcd, 0x2d, 0xbe, 0xf3, 0xb0, 0x5c, 0xbe, 0xac, 0x0e, 0x15, 0xbe,
  0xda, 0x82, 0x1a, 0x3e, 0xee, 0xb3, 0xdb, 0xbc, 0x35, 0xd9, 0x46, 0xbe,
  0x81, 0x88, 0x2e, 0xbe, 0x24, 0x02, 0xa1, 0xbe, 0xbd, 0x28, 0x17, 0x3d,
  0x15, 0xbf, 0x04, 0x3e, 0xa0, 0x55, 0x49, 0xbe, 0x54, 0x4b, 0xc2, 0x3d,
  0x6d, 0xd3, 0xba, 0x3c, 0x24, 0x0b, 0x92, 0xbd, 0xc6, 0x07, 0x1b, 0xbf,
  0x4b, 0x4b, 0x18, 0xbe, 0x7a, 0x26, 0x35, 0x3d, 0x3d, 0x4f, 0x99, 0x3b,
  0xe5, 0x7f, 0x4e, 0xbe, 0x26, 0x78, 0x22, 0x3d, 0xdf, 0x36, 0xca, 0x3b,
  0xc2, 0xca, 0xc1, 0x3d, 0x1f, 0x27, 0x8d, 0xbd, 0x6a, 0x9c, 0x30, 0xbe,
  0xcc, 0x95, 0xde, 0xbd, 0xdc, 0xd8, 0x03, 0xbe, 0x11, 0xed, 0x03, 0xbe,
  0x83, 0x95, 0x93, 0xbe, 0x0b, 0xe8, 0x1c, 0xbc, 0xef, 0xa6, 0xd5, 0xbc,
  0x98, 0x95, 0xf3, 0xbe, 0x44, 0xbc, 0xd5, 0xbe, 0xca, 0x96, 0x87, 0x3d,
  0xf6, 0x7c, 0x04, 0x3c, 0x29, 0x53, 0x4b, 0xbd, 0x30, 0x5c, 0xb0, 0x3d,
  0xb9, 0xf3, 0xdf, 0x3b, 0xfe, 0x85, 0xbc, 0xbe, 0x74, 0x1d, 0x3a, 0xbe,
  0x05, 0x0c, 0x66, 0xbd, 0xb8, 0x3c, 0xde, 0x3c, 0xa4, 0x2b, 0x1d, 0xbd,
  0x20, 0x7d, 0x8f, 0xbc, 0xd2, 0xd5, 0x28, 0x3d, 0x0d, 0x74, 0x25, 0xbe,
  0x64, 0xe6, 0x0e, 0xbe, 0x9f, 0x49, 0x0c, 0xbf, 0x3a, 0xdc, 0x23, 0xbe,
  0xc2, 0xa0, 0x29, 0xbe, 0xd5, 0xdd, 0x3a, 0xbd, 0x89, 0xc3, 0x63, 0xbd,
  0x5b, 0x3f, 0x7d, 0xbd, 0xab, 0x1b, 0x8f, 0x3d, 0x0a, 0x81, 0xcc, 0xbe,
  0xde, 0x4d, 0xa8, 0xbe, 0x8a, 0xdd, 0x2c, 0xbe, 0x65, 0x76, 0x8f, 0xbc,
  0xf3, 0xf5, 0x98, 0x3c, 0xc9, 0x35, 0x58, 0x3d, 0x37, 0x65, 0x8b, 0x3d,
  0x89, 0xeb, 0xb5, 0xbc, 0x88, 0x8f, 0x46, 0xbe, 0xf6, 0x96, 0xe4, 0xbe,
  0x09, 0x28, 0xc4, 0xbd, 0x9e, 0xc0, 0xb7, 0xb9, 0xc2, 0x11, 0x38, 0xbe,
  0x7c, 0x82, 0x37, 0xbe, 0x9a, 0x3e, 0x7a, 0x3a, 0x93, 0x50, 0xde, 0x3c,
  0x48, 0xb9, 0x9b, 0xbe, 0x3f, 0xfd, 0x8e, 0xbd, 0xe9, 0xba, 0x2c, 0x3e,
  0x19, 0x83, 0xdb, 0xbd, 0x40, 0xa3, 0xad, 0xbd, 0x9a, 0x22, 0x91, 0x3d,
  0x39, 0x94, 0xe7, 0xbc, 0xda, 0xa7, 0x55, 0x3c, 0x59, 0x46, 0x61, 0xbd,
  0x49, 0x35, 0x3e, 0xbe, 0x2b, 0x3d, 0x7f, 0xbd, 0x23, 0xab, 0xe4, 0x38,
  0xf4, 0xc6, 0x32, 0x3e, 0x35, 0x94, 0x7e, 0xbd, 0x9f, 0x81, 0x77, 0x3d,
  0x9e, 0x70, 0x36, 0x3b, 0x38, 0x67, 0xb7, 0x3c, 0x9c, 0x9b, 0x82, 0xbd,
  0xeb, 0xaf, 0x40, 0xbd, 0x0b, 0xf9, 0xf7, 0x3e, 0x3f, 0x25, 0x42, 0x3c,
  0x7e, 0x25, 0x76, 0xbd, 0x34, 0x26, 0x44, 0x3d, 0x55, 0x1b, 0x3e, 0x3d,
  0xfd, 0xcd, 0x41, 0x3d, 0xc3, 0x19, 0xa3, 0x3d, 0xaa, 0xf1, 0x42, 0x3e,
  0x75, 0xd9, 0xad, 0x3d, 0x4f, 0xec, 0xe2, 0x3d, 0xa7, 0xa5, 0x4e, 0xbd,
  0x6d, 0xf1, 0xdf, 0x3d, 0xa1, 0x55, 0xad, 0xbe, 0x3b, 0xaf, 0x21, 0x3e,
  0x51, 0x92, 0x70, 0xbb, 0x02, 0xbe, 0x3a, 0x3c, 0x61, 0xdc, 0x94, 0xbd,
  0xfd, 0x87, 0x01, 0xbe, 0xf1, 0xe8, 0x2a, 0xbc, 0x8a, 0x24, 0x1e, 0x3e,
  0x1e, 0x3d, 0xab, 0xbc, 0xd4, 0xd5, 0xb9, 0xbd, 0x5a, 0x86, 0x7f, 0x3d,
  0x63, 0x74, 0x51, 0x3f, 0xf3, 0x96, 0xfb, 0x3d, 0x69, 0xc5, 0x51, 0xbb,
  0x8b, 0xbf, 0xa0, 0x3d, 0x20, 0x17, 0x49, 0xbc, 0x35, 0x6b, 0x34, 0x3d,
  0xc4, 0xd8, 0xa0, 0x3d, 0xd1, 0x9d, 0xfc, 0x3c, 0x7c, 0x21, 0x16, 0x3d,
  0x8f, 0xb2, 0xa4, 0xbd, 0x56, 0x20, 0x78, 0xbc, 0x23, 0x10, 0x4d, 0x3d,
  0x14, 0x83, 0x6f, 0x3e, 0xe4, 0xf5, 0x08, 0xbe, 0xdc, 0x4f, 0xbc, 0x3c,
  0xcc, 0x69, 0x67, 0xbd, 0xfc, 0xcd, 0x5f, 0x3b, 0x46, 0x71, 0xd0, 0xbe,
  0x18, 0x23, 0x96, 0xbe, 0x26, 0x53, 0xc2, 0x3d, 0x30, 0x18, 0xa3, 0xbe,
  0x03, 0xd3, 0x5c, 0xbd, 0x61, 0x4b, 0x5f, 0xbd, 0xed, 0x12, 0x60, 0x3e,
  0x02, 0xe7, 0x4b, 0x3e, 0x62, 0xed, 0x2b, 0x3d, 0x90, 0x94, 0x45, 0xbc,
  0x3e, 0xe7, 0xc8, 0x3d, 0x39, 0x0a, 0x3f, 0xbe, 0x57, 0x50, 0x79, 0xbe,
  0xba, 0xb1, 0x1f, 0x3e, 0xb0, 0x2e, 0x99, 0xbd, 0x5b, 0xcd, 0x6d, 0x3e,
  0x1e, 0xc8, 0xb4, 0xbe, 0x1e, 0x2a, 0x36, 0xbe, 0xcc, 0xdb, 0x37, 0x3d,
  0x9f, 0x23, 0x1d, 0xbd, 0xd7, 0x4e, 0xbd, 0x3c, 0xe1, 0x7b, 0xc6, 0xbd,
  0x78, 0x02, 0xf7, 0xbe, 0x32, 0x84, 0x9c, 0xbc, 0xda, 0xec, 0x27, 0x3d,
  0x68, 0xd6, 0xa7, 0x3d, 0x42, 0xb1, 0xcb, 0x3d, 0x9a, 0x0a, 0x47, 0x3e,
  0xfe, 0xf5, 0x3b, 0xbe, 0x4f, 0x96, 0x1a, 0xbd, 0x1a, 0x35, 0x71, 0xbd,
  0xec, 0x1a, 0xd2, 0x3d, 0x33, 0x5d, 0x5e, 0x3d, 0x2a, 0x59, 0x44, 0x3d,
  0xb9, 0xe2, 0x4e, 0xbd, 0xe8, 0x68, 0x2f, 0xbc, 0x62, 0x9d, 0x62, 0x3c,
  0x85, 0x51, 0x43, 0x3e, 0xc6, 0x3a, 0x54, 0xbe, 0x88, 0xd1, 0xfa, 0xbd,
  0x47, 0x1f, 0x03, 0x3e, 0x7c, 0xf2, 0xb0, 0xbd, 0xdc, 0xb6, 0x48, 0xbe,
  0xfb, 0xeb, 0x5b, 0x3e, 0x6b, 0x71, 0xd5, 0xbd, 0xdb, 0xc8, 0x29, 0x3d,
  0x7e, 0x38, 0xc3, 0x3c, 0xe8, 0x21, 0xeb, 0x3c, 0x29, 0xf4, 0xce, 0x3d,
  0x28, 0x56, 0x2e, 0x3d, 0xe1, 0xd3, 0x5e, 0xbd, 0x2e, 0x86, 0x0c, 0x3d,
  0x22, 0x6e, 0xf5, 0x3c, 0x56, 0xde, 0xaf, 0x3d, 0x05, 0x76, 0xdc, 0xbd,
  0xb4, 0x7e, 0x1d, 0xbe, 0xd9, 0x34, 0xbb, 0xbd, 0x2f, 0x8f, 0x92, 0x3b,
  0xfe, 0x0e, 0x9c, 0x3d, 0xb8, 0x5c, 0x10, 0x3e, 0xb8, 0xb4, 0xdc, 0xbd,
  0xa4, 0xe9, 0x8a, 0x3d, 0xbc, 0xdc, 0x97, 0x3d, 0x1b, 0x16, 0xe1, 0xbd,
  0x63, 0xbc, 0xba, 0x3d, 0x29, 0x87, 0x2b, 0xbc, 0xb8, 0x69, 0xbb, 0xbd,
  0x71, 0x56, 0x01, 0xbd, 0xb3, 0x6a, 0x90, 0xbc, 0xf8, 0x4c, 0x50, 0xbd,
  0xb4, 0xe7, 0x1d, 0xbd, 0xf6, 0xd9, 0xfa, 0xbd, 0xcb, 0x2b, 0x6c, 0xbd,
  0xc9, 0xec, 0x8c, 0xbe, 0xd7, 0x6e, 0xef, 0x3d, 0x42, 0x71, 0x53, 0x3d,
  0xd2, 0xd0, 0x72, 0xbe, 0xcd, 0x04, 0x7e, 0x3d, 0x23, 0x66, 0xca, 0xbc,
  0x2a, 0x8e, 0x9f, 0x3d, 0xf0, 0x20, 0x24, 0x3d, 0x96, 0x72, 0x07, 0xbf,
  0x67, 0x1f, 0x7b, 0xbe, 0x1c, 0x60, 0x20, 0xbf, 0x89, 0x33, 0x2f, 0x3d,
  0xc6, 0xd1, 0x03, 0xbf, 0xb5, 0x40, 0xc1, 0x3d, 0x87, 0x20, 0x79, 0x3d,
  0xff, 0x10, 0xed, 0xbc, 0xa6, 0x0d, 0xb9, 0x3e, 0xf1, 0x50, 0x44, 0xbe,
  0x1f, 0xfc, 0x1f, 0xbf, 0x18, 0xe8, 0x86, 0xbd, 0xaf, 0x72, 0x04, 0x3e,
  0x6b, 0x13, 0x25, 0xbe, 0x87, 0x09, 0xc7, 0xbd, 0x80, 0x90, 0x0d, 0x3e,
  0x43, 0xd5, 0x87, 0xbc, 0xaf, 0x4d, 0x02, 0xbd, 0x35, 0xfe, 0xed, 0xbd,
  0x9e, 0xfa, 0x44, 0x3b, 0xe3, 0x36, 0xe6, 0xbd, 0x33, 0xc8, 0x15, 0x3e,
  0x5e, 0x4a, 0x96, 0xbc, 0xea, 0x10, 0xbf, 0xbd, 0xa0, 0x73, 0x8c, 0x3d,
  0x26, 0x06, 0xc5, 0xbd, 0x27, 0x8e, 0x0a, 0xbf, 0x22, 0x2c, 0x97, 0xbb,
  0xfb, 0xf0, 0xdb, 0x3b, 0xcd, 0xc4, 0x32, 0x3d, 0x56, 0xa4, 0xf4, 0x3e,
  0x30, 0x2d, 0xc3, 0x3e, 0x17, 0xc3, 0x45, 0xbc, 0x44, 0x9a, 0x6f, 0xbe,
  0x2f, 0xc0, 0x82, 0xbd, 0x57, 0x21, 0x5f, 0x3d, 0xeb, 0x1e, 0xd0, 0x3d,
  0x2f, 0x2c, 0x09, 0x3e, 0x75, 0xee, 0xad, 0xbc, 0x3b, 0xaf, 0x8c, 0xbd,
  0xfa, 0x3f, 0x51, 0x3e, 0x90, 0x0b, 0xc4, 0x3d, 0xac, 0xf3, 0xbe, 0xbe,
  0x90, 0x73, 0x41, 0x3d, 0xa9, 0xb5, 0xbd, 0x3c, 0x2e, 0x5a, 0x22, 0x3d,
  0x57, 0xd7, 0xea, 0x3e, 0x0e, 0xe0, 0xbd, 0x3e, 0x9b, 0x14, 0x7c, 0xbe,
  0xae, 0xc1, 0xc5, 0xbd, 0x92, 0x0d, 0x49, 0xbe, 0xb3, 0x42, 0xc9, 0x3d,
  0xbc, 0x40, 0xb8, 0x3d, 0xdd, 0x8e, 0xcb, 0x3e, 0xd6, 0x28, 0x93, 0xbd,
  0x8d, 0xbe, 0x52, 0xbd, 0x42, 0x20, 0x74, 0x3d, 0xd7, 0x4f, 0x14, 0xbe,
  0xf7, 0x15, 0x47, 0xbe, 0x93, 0x48, 0xe0, 0xba, 0x77, 0x31, 0x97, 0x3e,
  0xc9, 0xdb, 0xae, 0x3c, 0x17, 0x29, 0x20, 0x3f, 0x0b, 0xc0, 0xee, 0x3d,
  0x43, 0x20, 0x88, 0xbe, 0x02, 0xef, 0x36, 0xbd, 0x04, 0xcd, 0xd7, 0xbe,
  0x70, 0x28, 0xde, 0x3d, 0x4b, 0xbc, 0x75, 0xbe, 0xa4, 0x65, 0xc0, 0x3e,
  0x34, 0xdb, 0xc5, 0xbc, 0x53, 0x54, 0x57, 0xbe, 0x10, 0x54, 0x3a, 0x3d,
  0xc0, 0xeb, 0x07, 0xbd, 0xf8, 0x16, 0x12, 0xbf, 0xbe, 0x38, 0x00, 0x3c,
  0xce, 0x85, 0x3d, 0xbd, 0xe7, 0xda, 0x67, 0xbd, 0xb4, 0xbd, 0x09, 0x3f,
  0x25, 0x62, 0xb4, 0x3d, 0xb5, 0x96, 0xe0, 0xbe, 0x99, 0x64, 0x81, 0xbc,
  0x24, 0x71, 0xf0, 0xbe, 0x38, 0x82, 0x30, 0x3e, 0x5f, 0x0a, 0xac, 0xbe,
  0x3f, 0x61, 0x8d, 0x3e, 0x6b, 0x0c, 0x49, 0xbc, 0xbf, 0xc2, 0x4d, 0x3c,
  0xc1, 0x61, 0x28, 0x3c, 0xf2, 0xbb, 0x9d, 0xbc, 0xe7, 0xa4, 0xd3, 0xbe,
  0xff, 0xc0, 0x0d, 0xbd, 0xbf, 0x13, 0x36, 0x3d, 0x4c, 0xb8, 0x93, 0xbd,
  0xe3, 0xc8, 0xc5, 0x3e, 0x76, 0xab, 0x2d, 0x3d, 0xfa, 0x6e, 0xc1, 0xbd,
  0x8d, 0x54, 0x50, 0x3e, 0xc0, 0x3d, 0x1e, 0xbe, 0xf4, 0x2c, 0x4d, 0x3d,
  0x73, 0x82, 0x12, 0xbe, 0x4c, 0x52, 0x5a, 0x3d, 0xd9, 0x42, 0x03, 0x3f,
  0x64, 0xdc, 0x3d, 0xbd, 0xa2, 0x28, 0x19, 0x3f, 0xc8, 0x3b, 0x2d, 0x3e,
  0x88, 0xeb, 0x00, 0xbe, 0x7e, 0x59, 0x92, 0xbd, 0x36, 0xfa, 0xc0, 0x3b,
  0x90, 0xa2, 0x34, 0xbd, 0xe7, 0x13, 0x2a, 0xbe, 0xcc, 0x1a, 0x1c, 0xbd,
  0xa2, 0x48, 0x01, 0x3e, 0x4e, 0x6a, 0x36, 0xbc, 0xfb, 0x34, 0xd9, 0x3d,
  0xf5, 0xb4, 0x8e, 0xbe, 0x96, 0x09, 0x21, 0x3e, 0xb9, 0xd7, 0xc8, 0xbd,
  0xde, 0x66, 0x26, 0xbd, 0x4c, 0x95, 0x06, 0xbd, 0x1a, 0x15, 0x3b, 0xbd,
  0x3b, 0x42, 0x25, 0xbe, 0x1d, 0x31, 0x2d, 0x3e, 0xea, 0x89, 0xf5, 0xbd,
  0xca, 0xd2, 0x88, 0xbe, 0x97, 0x44, 0x30, 0x3d, 0xae, 0xd8, 0xe2, 0x3e,
  0xc3, 0x5a, 0xa0, 0x3d, 0x54, 0x22, 0xa1, 0xbd, 0xc3, 0x42, 0x50, 0x3d,
  0x52, 0x33, 0xc4, 0x3d, 0x21, 0x06, 0x62, 0xbd, 0xdb, 0x7a, 0x5d, 0x3e,
  0x8b, 0x85, 0x90, 0xbd, 0x04, 0x08, 0x1c, 0x3e, 0x43, 0x41, 0x07, 0xbe,
  0x8d, 0xac, 0x4a, 0x3c, 0x5b, 0x88, 0x11, 0x3e, 0xa4, 0x8e, 0x35, 0x3d,
  0x2d, 0x95, 0x4f, 0xbc, 0xe8, 0x29, 0x30, 0x3e, 0xf8, 0x9f, 0xfa, 0xbc,
  0x8f, 0x71, 0x0f, 0x3f, 0xbc, 0x75, 0xbe, 0xbd, 0x60, 0xec, 0x8d, 0xbd,
  0x17, 0x86, 0xaf, 0x3d, 0x79, 0x87, 0x49, 0xbe, 0xde, 0xf8, 0x06, 0xbe,
  0x46, 0x30, 0xac, 0x3d, 0xc4, 0x1b, 0x6f, 0xbe, 0x31, 0x0f, 0x8d, 0x3e,
  0x60, 0xbb, 0x0d, 0x3d, 0xa6, 0xa6, 0x4f, 0x3e, 0xd6, 0x98, 0x0b, 0x3d,
  0x7a, 0x2e, 0x17, 0xbe, 0x0a, 0xfb, 0xd1, 0xbd, 0x49, 0x3f, 0x74, 0x3e,
  0x43, 0x2b, 0x85, 0x3b, 0x75, 0xb5, 0x0a, 0x3f, 0x0e, 0xb9, 0x27, 0xbf,
  0x9b, 0xe4, 0x03, 0xbe, 0x41, 0x2f, 0x04, 0x3e, 0x3c, 0x3a, 0x8e, 0xbe,
  0x1c, 0x85, 0xf3, 0xbc, 0x9f, 0xe8, 0xc2, 0xbe, 0xe2, 0x10, 0x05, 0xbf,
  0x3b, 0xae, 0x4c, 0x3e, 0xc2, 0x77, 0x06, 0x3e, 0x5c, 0xd4, 0xec, 0x3d,
  0x48, 0x74, 0x59, 0x3e, 0x48, 0x64, 0x88, 0xbe, 0x8c, 0xf5, 0x34, 0xbd,
  0xc6, 0xfe, 0x5d, 0xbe, 0x51, 0xdc, 0xf0, 0xbc, 0x5a, 0xb7, 0xe4, 0x3e,
  0xcc, 0xd6, 0x8f, 0xbc, 0xf5, 0x5b, 0x1c, 0xbd, 0x3d, 0x03, 0x18, 0xbc,
  0xbd, 0xad, 0xc3, 0x3c, 0x97, 0xd2, 0x16, 0xbe, 0x40, 0xd2, 0x27, 0xbd,
  0xae, 0xde, 0xd3, 0xbe, 0x0d, 0x20, 0x29, 0x3c, 0x0f, 0xa9, 0x54, 0x3e,
  0x22, 0x00, 0x84, 0x3e, 0xd8, 0x60, 0xd8, 0xbd, 0x0e, 0xe1, 0x70, 0x3e,
  0xf2, 0x8a, 0x00, 0xbe, 0x3f, 0x19, 0xe9, 0x3c, 0x7a, 0x64, 0x33, 0xbb,
  0x0b, 0x61, 0xe8, 0x3e, 0x46, 0x0e, 0x63, 0xbd, 0x3b, 0xba, 0x8c, 0xbd,
  0xde, 0xf7, 0x43, 0xbe, 0x3b, 0xf2, 0x21, 0x3e, 0x04, 0x3e, 0x5b, 0xbd,
  0xfb, 0xa8, 0xd8, 0x3d, 0x72, 0x80, 0xac, 0xbe, 0xd4, 0xa7, 0xff, 0xbd,
  0xba, 0x7d, 0xcd, 0x3d, 0x7a, 0x6c, 0x72, 0x3d, 0x77, 0x06, 0xaa, 0x3a,
  0x39, 0x62, 0x2d, 0x3e, 0x32, 0xd8, 0xec, 0xbd, 0x19, 0x02, 0x8f, 0x3c,
  0x43, 0xa3, 0x3c, 0x3c, 0xb8, 0x5e, 0x06, 0x3f, 0x61, 0x5c, 0x41, 0x3d,
  0xe7, 0xaf, 0x9c, 0xbb, 0x32, 0x72, 0x2b, 0xbe, 0x3b, 0x1e, 0xea, 0x3d,
  0x4d, 0xaa, 0x25, 0xbe, 0x9c, 0xb5, 0x6a, 0x3d, 0x98, 0x62, 0x41, 0xbe,
  0x20, 0x26, 0x33, 0xbe, 0x5f, 0x60, 0x85, 0xbe, 0xd8, 0x9a, 0x9b, 0xbe,
  0xd3, 0x76, 0xaa, 0x3d, 0x89, 0xff, 0xbe, 0xbc, 0xcd, 0x43, 0x2f, 0xbc,
  0xae, 0xb5, 0x7b, 0x3e, 0xd3, 0x65, 0x48, 0x3c, 0x19, 0x9d, 0xb9, 0x3e,
  0xa9, 0x07, 0x89, 0xbe, 0x6e, 0xae, 0x69, 0xbe, 0x7d, 0xa0, 0xb6, 0x3d,
  0x83, 0x8d, 0xdd, 0xbe, 0x17, 0xd7, 0x12, 0x3d, 0x18, 0x0c, 0x60, 0xbf,
  0x18, 0xa4, 0xd3, 0xbd, 0x2a, 0x81, 0x0d, 0x3e, 0x64, 0x63, 0xdc, 0x3d,
  0xe1, 0xc1, 0xd9, 0x3e, 0x88, 0x67, 0x5f, 0x3e, 0x6d, 0x64, 0x13, 0xbf,
  0x84, 0xa1, 0xd8, 0x3d, 0xa1, 0x0f, 0x8b, 0xbd, 0xe5, 0x58, 0x8c, 0x3b,
  0x11, 0xc7, 0xea, 0xbe, 0x35, 0x62, 0x3c, 0xbf, 0xfe, 0x8d, 0xab, 0x3d,
  0xc0, 0x77, 0x81, 0xbc, 0x84, 0x63, 0xe3, 0xbd, 0x23, 0x67, 0x7e, 0x3e,
  0x9d, 0xa3, 0xc0, 0xbd, 0xa4, 0xf8, 0xe4, 0xbe, 0xda, 0x4d, 0x8b, 0x3c,
  0x3f, 0x74, 0xd1, 0x3d, 0x5b, 0xd9, 0xcb, 0x3e, 0xea, 0xfa, 0xa8, 0x3e,
  0x5d, 0x38, 0x8a, 0xbe, 0x10, 0xab, 0x3f, 0x3e, 0x60, 0x23, 0x46, 0xbe,
  0x4a, 0xa2, 0xe0, 0x3c, 0x8b, 0xb6, 0xdf, 0xbe, 0x01, 0x91, 0xa1, 0xbe,
  0x71, 0x90, 0x4c, 0x3d, 0x12, 0x08, 0xa8, 0xbc, 0x88, 0x60, 0x2c, 0x3e,
  0x69, 0xc7, 0x04, 0x3d, 0x8b, 0x68, 0x0a, 0x3d, 0x41, 0xbe, 0x05, 0x3e,
  0x89, 0x96, 0x54, 0x3c, 0xf6, 0x06, 0xa5, 0xbd, 0x13, 0xfc, 0x13, 0x3e,
  0xe2, 0xff, 0xb4, 0x3e, 0x3b, 0x64, 0x46, 0xbe, 0x46, 0xbf, 0xa3, 0x3e,
  0x16, 0x55, 0x06, 0x3e, 0x59, 0x69, 0xd4, 0x3c, 0x7f, 0x21, 0xe2, 0xbe,
  0xa1, 0xec, 0xca, 0xbd, 0x44, 0x62, 0x56, 0xbd, 0x66, 0x7a, 0x8b, 0xbd,
  0x5b, 0x10, 0x0f, 0xbc, 0x84, 0xde, 0xa6, 0x3d, 0x2f, 0xa4, 0x21, 0x3d,
  0x6d, 0x98, 0x58, 0x3e, 0x93, 0x34, 0xa6, 0xbd, 0xc6, 0x03, 0x42, 0xbc,
  0xf7, 0xa3, 0x3c, 0x3e, 0xdf, 0xfd, 0x14, 0x3e, 0x86, 0xf9, 0x1f, 0xbd,
  0x18, 0x4f, 0x44, 0x3e, 0x04, 0x4e, 0x58, 0x3e, 0xae, 0x6f, 0x20, 0x3c,
  0x67, 0x4b, 0xa0, 0xbe, 0x22, 0x57, 0x7f, 0xbe, 0x14, 0x18, 0xda, 0xbb,
  0x96, 0x18, 0x52, 0xbd, 0xb7, 0x69, 0x73, 0xbe, 0x46, 0x44, 0xa3, 0xbc,
  0x93, 0xa6, 0x58, 0x3e, 0x40, 0x4c, 0x80, 0x3d, 0x93, 0x7b, 0xce, 0x3b,
  0x1b, 0x27, 0xb2, 0xbd, 0xd9, 0x1e, 0x8c, 0x3e, 0x90, 0x01, 0x6a, 0x3e,
  0x40, 0x5c, 0x97, 0xbc, 0xaf, 0x44, 0x3b, 0x3e, 0x33, 0xdb, 0x37, 0x3d,
  0xed, 0x86, 0x7a, 0x3d, 0x94, 0x3d, 0x79, 0xbe, 0xd4, 0x23, 0x2f, 0xbf,
  0x4a, 0xc6, 0xb0, 0x3d, 0x48, 0xc6, 0x36, 0x3d, 0x25, 0xc5, 0x88, 0xbe,
  0x4d, 0xbe, 0xf0, 0x3d, 0xc9, 0x8b, 0x4e, 0x3d, 0x66, 0x77, 0x6f, 0xbe,
  0x89, 0x9e, 0x1e, 0xbd, 0xd2, 0x98, 0x89, 0x39, 0x4e, 0x04, 0x5a, 0x3e,
  0x44, 0xa2, 0x88, 0xbc, 0x25, 0xeb, 0x56, 0xbe, 0x21, 0x93, 0x34, 0x3e,
  0x9b, 0x74, 0x92, 0xbe, 0x72, 0x50, 0xc8, 0x3c, 0x8d, 0xc7, 0x93, 0xbe,
  0x85, 0xb8, 0xc4, 0xbe, 0xee, 0x7d, 0xdf, 0x3d, 0xdf, 0x25, 0x4a, 0x3e,
  0xad, 0xc4, 0xa6, 0xbe, 0x3d, 0x24, 0xfb, 0x3d, 0x24, 0xc6, 0x83, 0xbc,
  0x8c, 0x84, 0xee, 0xbc, 0x12, 0xd3, 0x78, 0x3e, 0xe6, 0x37, 0xad, 0x3e,
  0xba, 0xfd, 0xd8, 0x3e, 0xf0, 0xae, 0xd7, 0x3d, 0x3f, 0xb2, 0x1d, 0xbc,
  0x1a, 0x4e, 0x23, 0x3e, 0xd4, 0x47, 0x42, 0xbf, 0xc5, 0xfd, 0x26, 0x3d,
  0xf1, 0x22, 0x2b, 0xbe, 0x90, 0x84, 0x42, 0xbe, 0xb8, 0x06, 0x3d, 0xbe,
  0x8c, 0xce, 0x48, 0xbe, 0x66, 0x58, 0x05, 0xbf, 0x34, 0x7d, 0x6b, 0x3d,
  0xcf, 0x43, 0x38, 0xbe, 0x93, 0x33, 0x35, 0xbe, 0x66, 0xeb, 0x09, 0xbf,
  0xa5, 0xc3, 0x8f, 0xba, 0xc0, 0x84, 0x1a, 0x3f, 0xcb, 0xf1, 0x4f, 0x3d,
  0x2e, 0x24, 0xb1, 0xbe, 0x1f, 0x1c, 0x17, 0xbe, 0x78, 0xb4, 0xb3, 0xbe,
  0xfe, 0x2a, 0x08, 0xbf, 0xd1, 0x31, 0x0d, 0x3f, 0xcf, 0x95, 0xe8, 0xbd,
  0xd0, 0x96, 0xbb, 0x3b, 0xb6, 0x09, 0x97, 0xbd, 0xdf, 0xc1, 0x54, 0xbe,
  0xc0, 0xc6, 0xaf, 0x3c, 0xe6, 0xff, 0xcc, 0xbe, 0xbe, 0xb1, 0xf7, 0xbe,
  0x5a, 0x47, 0x98, 0xbe, 0x72, 0xa3, 0x78, 0xbd, 0x86, 0x3d, 0x0e, 0x3f,
  0x6b, 0x96, 0xd0, 0xbd, 0xdd, 0x5a, 0x16, 0xbf, 0xbf, 0x6f, 0x20, 0xbe,
  0x24, 0x03, 0xbb, 0x3d, 0x72, 0xaa, 0xfe, 0xbe, 0x35, 0x5e, 0xbf, 0x3f,
  0x18, 0xbf, 0x99, 0x3d, 0x06, 0x9d, 0x36, 0xbe, 0x5e, 0x3e, 0xf3, 0xbd,
  0x19, 0xd1, 0x78, 0xbe, 0x8f, 0x13, 0x0b, 0x3d, 0x27, 0x02, 0xb0, 0xbd,
  0x35, 0xb1, 0x37, 0xbe, 0x87, 0x9f, 0xa3, 0xbe, 0xe6, 0x0c, 0x93, 0xbd,
  0x72, 0xc3, 0x06, 0x3f, 0x34, 0xc9, 0x13, 0xbe, 0xff, 0x03, 0x8d, 0xbe,
  0xbf, 0xbe, 0xf7, 0xbd, 0xea, 0x68, 0x91, 0x3e, 0x2f, 0xce, 0x73, 0xbe,
  0xd2, 0x2d, 0xe2, 0x3f, 0x9c, 0x9b, 0x7c, 0x3d, 0x35, 0xe3, 0x91, 0x3c,
  0xfb, 0x59, 0x00, 0xbe, 0xa8, 0x71, 0xd9, 0xbd, 0x2d, 0xea, 0x6a, 0xb9,
  0xbd, 0xcf, 0x25, 0x3e, 0xba, 0xd1, 0x8f, 0x3d, 0x5f, 0xbd, 0xc4, 0xbe,
  0x15, 0x7a, 0x5c, 0xbd, 0x21, 0x82, 0xe9, 0x3e, 0xf0, 0x4c, 0x9d, 0xbd,
  0x92, 0xa7, 0x55, 0xbe, 0x80, 0xbb, 0x65, 0xbd, 0x89, 0x78, 0x55, 0x3d,
  0x6d, 0x3e, 0x1a, 0x3e, 0xbc, 0x09, 0xf5, 0x3f, 0x25, 0xf7, 0x0f, 0x3e,
  0xda, 0x0c, 0xca, 0xbe, 0x16, 0x8d, 0xfe, 0x39, 0x4a, 0x8b, 0xaf, 0xbd,
  0x43, 0xbd, 0xaf, 0xbc, 0x07, 0x72, 0x98, 0xbe, 0xcd, 0xaa, 0x6e, 0x3e,
  0x8a, 0x3c, 0x8f, 0xbe, 0x2a, 0x69, 0x76, 0xbd, 0xbc, 0x92, 0xdc, 0x3e,
  0xe5, 0x0b, 0x1a, 0xbc, 0x87, 0xaa, 0x98, 0xbc, 0x1f, 0x85, 0x4c, 0xbe,
  0xc6, 0xe6, 0xfa, 0x3c, 0x5a, 0xdd, 0x86, 0x3d, 0x9c, 0x50, 0xc6, 0x3f,
  0x32, 0x97, 0x2a, 0x3d, 0xec, 0x5b, 0x67, 0xbe, 0xdf, 0x64, 0x06, 0xbc,
  0x09, 0x34, 0x51, 0xbe, 0xd7, 0x41, 0x10, 0xbe, 0x7b, 0x02, 0x09, 0xbe,
  0xe1, 0x47, 0x36, 0x3e, 0x8a, 0x36, 0x3e, 0x3e, 0x58, 0xea, 0xe6, 0xbc,
  0xd6, 0x5d, 0x05, 0x3f, 0x0f, 0x8d, 0x8a, 0xbe, 0x09, 0xda, 0xa0, 0xbd,
  0x58, 0x2c, 0xe7, 0xbc, 0xb5, 0xca, 0x13, 0x3e, 0x7a, 0x26, 0x92, 0x3c,
  0x8c, 0xb8, 0xbf, 0x3f, 0xad, 0x89, 0xee, 0x3d, 0x98, 0x2f, 0x6f, 0xbe,
  0x5d, 0xa5, 0xbd, 0x3d, 0xb8, 0x1f, 0xd6, 0x3d, 0x04, 0xaa, 0x43, 0xbe,
  0xdd, 0xa2, 0x6d, 0xbe, 0xe6, 0xd3, 0x9d, 0xbb, 0x86, 0xa5, 0x99, 0x3e,
  0xa3, 0x6f, 0x25, 0x3d, 0xcf, 0x76, 0xcf, 0x3e, 0xe1, 0xf2, 0x50, 0xbe,
  0x36, 0xa9, 0x06, 0xbe, 0x84, 0x57, 0x73, 0xbd, 0xec, 0xa7, 0xd4, 0x3c,
  0x83, 0x7d, 0x27, 0x3c, 0x54, 0x9e, 0xd4, 0xba, 0xc7, 0x92, 0x61, 0xbd,
  0xbd, 0xf1, 0x17, 0xbe, 0xb2, 0xfd, 0x78, 0xbc, 0x65, 0x95, 0x37, 0xbd,
  0xb5, 0x1d, 0xbf, 0x3d, 0x37, 0x0a, 0xc6, 0xbd, 0xef, 0x9a, 0x68, 0xbd,
  0xc6, 0x98, 0x06, 0x3e, 0x5d, 0x4b, 0xea, 0x3d, 0x20, 0x4f, 0x01, 0x3f,
  0x17, 0xfd, 0x06, 0x3e, 0xdf, 0xed, 0x39, 0xbe, 0x4e, 0x9e, 0x0b, 0x3e,
  0xc1, 0x8e, 0x78, 0xbd, 0x27, 0x9f, 0xc1, 0xbd, 0x8e, 0xf3, 0x81, 0xbe,
  0x12, 0x1e, 0xbe, 0xbd, 0x48, 0xfc, 0x71, 0x3e, 0xc8, 0x05, 0xcf, 0x3d,
  0x86, 0xb2, 0x50, 0x3e, 0x6e, 0xef, 0x0a, 0xbc, 0x27, 0x85, 0x89, 0xbd,
  0x2e, 0xb7, 0x83, 0xbe, 0x09, 0x96, 0x04, 0x3d, 0x98, 0xca, 0x86, 0x3e,
  0x31, 0x81, 0xc5, 0x3d, 0x24, 0x24, 0xc0, 0xbc, 0x95, 0x16, 0x11, 0xbd,
  0xb2, 0xe7, 0xc1, 0x3a, 0x9b, 0x65, 0x9c, 0xbc, 0xfc, 0x29, 0xff, 0xbe,
  0xd1, 0x23, 0xb0, 0xbe, 0x5e, 0xa1, 0x3d, 0xbd, 0x77, 0xce, 0xc2, 0x3e,
  0x41, 0xc6, 0x8a, 0xbd, 0x1a, 0x37, 0x8c, 0x3e, 0x5c, 0x4c, 0xb8, 0xbd,
  0x01, 0xd3, 0xcf, 0xbc, 0x1b, 0x76, 0x6c, 0x3d, 0x0b, 0x35, 0xc3, 0xbe,
  0xbb, 0xbd, 0xeb, 0x3e, 0x07, 0x08, 0xba, 0x3d, 0x10, 0x03, 0xa9, 0x3e,
  0x0f, 0xf9, 0x89, 0xbc, 0xa9, 0x54, 0xd7, 0x3d, 0x42, 0x90, 0x2d, 0xbe,
  0xfe, 0xcf, 0xc5, 0xbe, 0xae, 0xdb, 0x43, 0xbe, 0x79, 0x5d, 0x8d, 0x3d,
  0x61, 0x85, 0x4c, 0x3e, 0x3f, 0x22, 0x98, 0xbd, 0x02, 0x43, 0x9a, 0x3e,
  0x36, 0x63, 0xad, 0x3d, 0x2c, 0x33, 0x51, 0x3d, 0xc8, 0x95, 0x21, 0x3e,
  0x6c, 0x36, 0x39, 0xbe, 0x6e, 0x19, 0x6c, 0x3e, 0x39, 0xfa, 0x1e, 0x3e,
  0x0b, 0x7d, 0x3b, 0xbd, 0x2b, 0x1a, 0x6b, 0xbd, 0x29, 0x14, 0x29, 0x3d,
  0x50, 0x0d, 0xd9, 0xbd, 0x0c, 0x5d, 0xab, 0xbe, 0x7f, 0x1f, 0x90, 0xbe,
  0x35, 0x88, 0x81, 0x3d, 0x19, 0xac, 0x8f, 0x3e, 0x22, 0x0e, 0x0a, 0xbe,
  0x3a, 0x81, 0xae, 0x3e, 0x1a, 0x39, 0x9b, 0x3c, 0x25, 0xdc, 0x0e, 0xbd,
  0x73, 0x62, 0x3a, 0xbc, 0x51, 0x91, 0xdd, 0x3b, 0x57, 0xe6, 0x90, 0x3e,
  0xcf, 0x96, 0x74, 0x3e, 0x31, 0xe4, 0x5b, 0x3e, 0xca, 0x83, 0x04, 0xbe,
  0x7e, 0x76, 0x36, 0x3e, 0xe7, 0x89, 0x19, 0xbe, 0xc1, 0x96, 0xae, 0xbe,
  0x83, 0x23, 0xba, 0xbd, 0x67, 0x40, 0x37, 0xbe, 0xee, 0xa8, 0x32, 0x3d,
  0xdd, 0x74, 0x86, 0x3e, 0x4b, 0xc1, 0x87, 0x3e, 0xe5, 0x0e, 0x58, 0xbc,
  0x40, 0x3a, 0x01, 0xbb, 0x6e, 0xc1, 0xac, 0xbd, 0x5d, 0xc6, 0xc8, 0x3d,
  0xb5, 0xf7, 0x52, 0x3e, 0xe1, 0xc2, 0x3b, 0x3e, 0x90, 0x4e, 0x9a, 0x3e,
  0x8b, 0x13, 0xaa, 0xbd, 0x16, 0xe8, 0x79, 0x3d, 0x1a, 0x7d, 0x8a, 0xbe,
  0x75, 0x0b, 0x09, 0xbf, 0xd9, 0xfd, 0x60, 0x3d, 0xaa, 0x9d, 0x69, 0xbd,
  0xe8, 0xfe, 0xb0, 0xbd, 0x68, 0xe2, 0x4c, 0x3d, 0xfb, 0xe4, 0x87, 0x3d,
  0x73, 0x85, 0xc5, 0x3d, 0x31, 0xb1, 0xb6, 0xbc, 0xa9, 0xb3, 0x39, 0x3d,
  0xed, 0xa1, 0x08, 0xbf, 0x3a, 0x78, 0x53, 0xbe, 0x45, 0x0f, 0xb8, 0x3e,
  0x54, 0x73, 0xd8, 0xbd, 0x6a, 0xe9, 0xbc, 0xbe, 0x4e, 0x7b, 0x50, 0x3e,
  0x75, 0xdd, 0xdd, 0xbd, 0x83, 0x03, 0x65, 0xbe, 0xaa, 0x39, 0xf1, 0xbd,
  0xf5, 0x29, 0x4d, 0x3d, 0x1a, 0xd1, 0x85, 0xbc, 0xad, 0x72, 0x9b, 0x3d,
  0x86, 0x4e, 0x76, 0x3b, 0x4b, 0xcb, 0xe1, 0xbc, 0x50, 0xa8, 0x00, 0xbc,
  0x7d, 0x44, 0xaa, 0x3d, 0x54, 0xfb, 0x1e, 0x3d, 0x61, 0x0f, 0x06, 0xbd,
  0xa2, 0x92, 0x49, 0xbe, 0x8a, 0x36, 0x33, 0xbe, 0x75, 0x17, 0x92, 0x3c,
  0xfc, 0xf2, 0x2c, 0x3d, 0xed, 0x92, 0x0c, 0x3e, 0x35, 0x9d, 0x18, 0x3c,
  0x5e, 0x04, 0xde, 0x3e, 0x7e, 0x63, 0xa8, 0x3d, 0x1d, 0x28, 0x10, 0xbe,
  0x29, 0x47, 0x2b, 0x3e, 0xc1, 0x64, 0x85, 0xbe, 0xa9, 0x45, 0xb1, 0xbd,
  0x10, 0x2c, 0xe0, 0x3c, 0xa8, 0x6f, 0x4c, 0x3e, 0x6f, 0xa1, 0xa6, 0xbe,
  0x5a, 0x14, 0xd7, 0xbd, 0x4a, 0x73, 0x36, 0x3e, 0xe0, 0x6b, 0x7a, 0xbe,
  0x0c, 0x68, 0xce, 0xba, 0x21, 0xf1, 0x0b, 0xbe, 0xaf, 0xaf, 0xe6, 0xbd,
  0x23, 0xac, 0xc7, 0xbb, 0x92, 0x46, 0xd6, 0x3e, 0xfe, 0xfc, 0x1a, 0x3e,
  0xd8, 0x43, 0xf5, 0xbd, 0xc1, 0x3d, 0xc0, 0x3c, 0x1b, 0xe7, 0x0f, 0xbe,
  0x28, 0x3e, 0xff, 0x3b, 0x69, 0x0b, 0xa6, 0xbd, 0x7f, 0xa0, 0x1a, 0x3e,
  0xa1, 0x40, 0xc3, 0xbe, 0xf9, 0x05, 0x46, 0xba, 0x33, 0x92, 0xbc, 0xbd,
  0xa3, 0xfb, 0xa1, 0x3d, 0xa3, 0xaa, 0x80, 0x3c, 0xc4, 0x5f, 0x3c, 0xbe,
  0x0e, 0x65, 0x8e, 0xbd, 0x14, 0x1a, 0x21, 0xbe, 0x7d, 0x12, 0x5f, 0x3f,
  0x03, 0x26, 0x7e, 0x3d, 0xa8, 0x13, 0xb0, 0xbe, 0x4f, 0x22, 0x78, 0xbc,
  0x3c, 0xc7, 0x83, 0xbe, 0x03, 0xe3, 0x2b, 0x3d, 0x54, 0x3f, 0x2b, 0x3d,
  0x30, 0x44, 0x16, 0x3e, 0x39, 0x8f, 0x42, 0xbe, 0x2f, 0xbd, 0x73, 0xbb,
  0x5b, 0x1f, 0x1d, 0xbd, 0xa4, 0xcb, 0x22, 0xbe, 0x64, 0x0c, 0x89, 0x3d,
  0x79, 0xe3, 0xb5, 0xbd, 0xba, 0xef, 0x36, 0x3d, 0xea, 0xe2, 0xf7, 0xbd,
  0x67, 0x28, 0xb2, 0x3f, 0xfc, 0x7e, 0x9c, 0x3d, 0x33, 0xc8, 0xdb, 0xbe,
  0xf1, 0xe9, 0xf3, 0xbb, 0x06, 0xf7, 0x0b, 0xbf, 0x4f, 0x6a, 0x1b, 0x3d,
  0x1b, 0xc5, 0x32, 0xbe, 0xf4, 0xe9, 0x07, 0x3e, 0x4a, 0xbe, 0x83, 0xbe,
  0x65, 0xae, 0x40, 0xbc, 0x17, 0x0e, 0x1a, 0xbd, 0xe8, 0xe5, 0xe0, 0x3c,
  0x40, 0x7f, 0x14, 0xbe, 0x00, 0xeb, 0x77, 0xbd, 0x58, 0xe5, 0x93, 0xbd,
  0x11, 0x91, 0x02, 0xbe, 0x8d, 0x58, 0x96, 0x3f, 0x06, 0xa5, 0x5a, 0x3e,
  0xe6, 0xb5, 0x07, 0xbe, 0x29, 0x56, 0x89, 0xbd, 0xe7, 0x2a, 0x16, 0xbe,
  0xd6, 0x95, 0x24, 0xbe, 0xea, 0x9f, 0x89, 0xbe, 0x74, 0x55, 0x80, 0x3e,
  0x0b, 0xc4, 0xc8, 0xbe, 0x90, 0xc9, 0x31, 0xbe, 0xcf, 0xe0, 0xd0, 0x3d,
  0x86, 0xfe, 0x1c, 0xbe, 0x18, 0xa4, 0x3c, 0xbc, 0x9f, 0x14, 0x11, 0xbe,
  0x93, 0x9d, 0xa5, 0x3d, 0xf3, 0x20, 0x12, 0xbd, 0xd8, 0xd5, 0x75, 0x3f,
  0xc0, 0xf2, 0x4f, 0x3c, 0x16, 0x87, 0xb2, 0x3d, 0xe2, 0x1c, 0x0a, 0xbd,
  0xe4, 0x79, 0xf9, 0x3c, 0x0f, 0x71, 0xeb, 0xbb, 0x14, 0xb6, 0x91, 0x3d,
  0x88, 0xeb, 0x1a, 0xbc, 0x04, 0xf8, 0xba, 0xbc, 0x4f, 0x90, 0x95, 0xbd,
  0x53, 0x38, 0x43, 0xbe, 0x19, 0x8a, 0x88, 0x3c, 0x32, 0xe5, 0xc3, 0xbd,
  0x4a, 0x0d, 0xf6, 0xbc, 0xbb, 0x99, 0x2c, 0x3e, 0xc7, 0x15, 0xb2, 0xbd,
  0xe6, 0x1e, 0x80, 0x3d, 0x19, 0x92, 0x68, 0xbe, 0x0c, 0x31, 0xd9, 0x3d,
  0xcb, 0xe9, 0x3f, 0xbd, 0xdf, 0xf5, 0x5f, 0xbd, 0x23, 0xa6, 0xf6, 0x3d,
  0x00, 0x20, 0x8b, 0x3d, 0xd7, 0x9e, 0xb8, 0xbd, 0xa2, 0x04, 0xa8, 0x3d,
  0xe5, 0x0f, 0x5d, 0xbc, 0x25, 0x32, 0x9b, 0xbe, 0xa9, 0x3f, 0xd8, 0x3d,
  0xc4, 0x67, 0xc0, 0xbe, 0x18, 0xab, 0x81, 0xbd, 0xd1, 0x89, 0x15, 0xbe,
  0x85, 0x90, 0x75, 0xbd, 0xd9, 0xd1, 0xcc, 0x3c, 0xc7, 0xac, 0x79, 0xbe,
  0x91, 0x59, 0x87, 0x3d, 0xf9, 0x33, 0x41, 0xbd, 0x28, 0x84, 0x26, 0xbe,
  0x8e, 0xe6, 0x10, 0x3e, 0xd3, 0x6f, 0x65, 0xbe, 0x95, 0x58, 0xf7, 0xbd,
  0xad, 0x6d, 0x96, 0xbe, 0xe0, 0x27, 0xba, 0x3d, 0x59, 0x36, 0xce, 0x3d,
  0xc7, 0x8d, 0x2d, 0x3e, 0xe9, 0xcc, 0x58, 0xbe, 0x07, 0x3b, 0xf6, 0xbc,
  0xbd, 0xfd, 0x3b, 0x3d, 0x62, 0xf2, 0x53, 0xbe, 0x6a, 0x6b, 0x8c, 0xbe,
  0xc9, 0x84, 0x5a, 0x3d, 0x1f, 0x75, 0x97, 0xbe, 0x95, 0x9b, 0x0f, 0x3e,
  0x2d, 0x0d, 0xd7, 0xbd, 0xf1, 0x8d, 0x06, 0x3e, 0xd1, 0x06, 0x05, 0x3d,
  0x89, 0x9e, 0xe2, 0x3d, 0xbd, 0x20, 0xd1, 0xbd, 0x0a, 0x6d, 0xd1, 0x3e,
  0xbb, 0x98, 0xa6, 0xbd, 0xe7, 0x55, 0x97, 0x3d, 0x60, 0xf9, 0x1b, 0x3b,
  0xc3, 0x3a, 0x33, 0x3e, 0xf4, 0x0d, 0x5b, 0x3d, 0x26, 0x62, 0x04, 0xbe,
  0xee, 0x4f, 0x41, 0xbe, 0xaa, 0x8e, 0x7b, 0x3b, 0xe1, 0xd6, 0x97, 0xbd,
  0x31, 0x9b, 0xaa, 0x3e, 0x71, 0x9f, 0x23, 0x3e, 0xd8, 0x43, 0x09, 0x3e,
  0x4d, 0xd0, 0x83, 0x3d, 0x79, 0x83, 0x6e, 0x3e, 0xb4, 0x5d, 0x8a, 0xbe,
  0x74, 0x3d, 0x73, 0x3e, 0xfb, 0xc6, 0x28, 0xbe, 0xa9, 0xb1, 0xe4, 0x3d,
  0xb5, 0x3a, 0xdc, 0xbd, 0x35, 0xb5, 0x2b, 0x3e, 0x33, 0xbd, 0xcc, 0x3d,
  0x6e, 0xa5, 0x9a, 0xbe, 0x71, 0x28, 0x3f, 0xbe, 0xc7, 0xbe, 0xc9, 0xbd,
  0xa2, 0x68, 0x99, 0xbb, 0xfb, 0x61, 0x8f, 0x3d, 0x88, 0xa8, 0x59, 0x3e,
  0xa5, 0xd2, 0xc6, 0xbd, 0x40, 0x64, 0x1c, 0xbe, 0xb6, 0xec, 0x84, 0xbd,
  0x92, 0x11, 0x7c, 0xba, 0x87, 0x6e, 0x5a, 0x3e, 0x43, 0x3a, 0x7a, 0x3e,
  0x85, 0x58, 0xcc, 0x3d, 0xfb, 0xda, 0xb9, 0xbe, 0x49, 0x2f, 0x85, 0xbd,
  0xd9, 0xe8, 0x49, 0xbb, 0xad, 0xc0, 0x59, 0xbe, 0x59, 0xcf, 0x99, 0xbe,
  0x4b, 0x77, 0xb2, 0xbe, 0xe4, 0xc6, 0x7c, 0xbd, 0x1c, 0xd7, 0xae, 0x3d,
  0x65, 0xb7, 0x15, 0x3d, 0xc1, 0xa9, 0x43, 0x3d, 0xe1, 0x9d, 0x8f, 0x3d,
  0x49, 0x57, 0x22, 0xbe, 0x41, 0xc7, 0xc4, 0x3d, 0xd9, 0x14, 0x0e, 0x3e,
  0xf4, 0x24, 0x8a, 0xbe, 0x1c, 0xe1, 0x26, 0x3e, 0x82, 0x0f, 0xc9, 0xbd,
  0x44, 0x51, 0x7e, 0x3d, 0x4e, 0x2d, 0x92, 0xbe, 0xd5, 0x6a, 0xa3, 0xbe,
  0xbd, 0x93, 0x97, 0xbe, 0x9f, 0x47, 0x79, 0xbe, 0xe1, 0x11, 0x1d, 0x3d,
  0xaf, 0x4f, 0x2c, 0x3e, 0xa9, 0x2b, 0x5d, 0xbc, 0x97, 0x77, 0xdf, 0x3d,
  0x93, 0xe9, 0x14, 0x3d, 0x7e, 0x51, 0x1b, 0x3b, 0xb7, 0x86, 0x92, 0x3d,
  0x71, 0x15, 0xaa, 0x3e, 0xd7, 0x3a, 0x55, 0x3e, 0xf6, 0x08, 0xa6, 0xbd,
  0x49, 0x90, 0x89, 0x3d, 0x87, 0x9d, 0x12, 0xbe, 0x30, 0x50, 0xb0, 0xbe,
  0x03, 0x9d, 0xe4, 0x3d, 0x57, 0x79, 0xd4, 0xbe, 0xf8, 0xb1, 0xb1, 0xbd,
  0xc2, 0xaa, 0xb9, 0xbe, 0x23, 0xbc, 0xef, 0xbd, 0x7f, 0x72, 0x76, 0xbe,
  0xb6, 0xe0, 0xb2, 0xbd, 0x85, 0x11, 0x40, 0xbe, 0x87, 0xb8, 0x31, 0xbf,
  0x24, 0x45, 0x1a, 0xbf, 0x28, 0x45, 0xa8, 0xbd, 0x87, 0xfc, 0x2c, 0x3f,
  0x5c, 0x01, 0xbd, 0x3d, 0x30, 0x18, 0x90, 0xbe, 0x39, 0x12, 0x5f, 0xbc,
  0xe1, 0xda, 0xda, 0xbd, 0xe5, 0x56, 0x84, 0xbf, 0xa1, 0xba, 0x8a, 0x3d,
  0x8e, 0xf0, 0xbe, 0xbd, 0x2f, 0x12, 0x49, 0x3d, 0x4c, 0xfb, 0x38, 0xbe,
  0xe0, 0x4c, 0xb8, 0x3c, 0xfa, 0x18, 0x8f, 0xbe, 0x75, 0x1e, 0xd6, 0xbe,
  0x97, 0x85, 0x9d, 0xbe, 0xdb, 0x7b, 0xc0, 0xbe, 0xea, 0xc4, 0xe0, 0x3d,
  0x3e, 0xf8, 0x78, 0x3f, 0x3d, 0x6e, 0xf4, 0xbb, 0x11, 0x56, 0x8e, 0xbe,
  0xe8, 0x73, 0x84, 0x3b, 0xa5, 0xb9, 0x8f, 0xbd, 0xbf, 0xc9, 0x81, 0xbf,
  0x45, 0x64, 0xcc, 0x3f, 0x1f, 0x3b, 0x8b, 0xbe, 0x7a, 0x87, 0xab, 0x3b,
  0xe1, 0x62, 0x01, 0xbe, 0xfe, 0x5f, 0x48, 0x3e, 0x63, 0x1b, 0x03, 0xbe,
  0x15, 0x4d, 0x90, 0xbe, 0x8d, 0xd6, 0x2e, 0xbd, 0x0b, 0x81, 0x1c, 0xbf,
  0x12, 0xf3, 0x6a, 0x3d, 0x83, 0x13, 0x26, 0x3f, 0x2f, 0x8c, 0xeb, 0x3d,
  0x03, 0x6f, 0xc6, 0xbe, 0x12, 0xec, 0xe5, 0x3b, 0xa5, 0xd2, 0x8a, 0xbe,
  0x97, 0x79, 0x70, 0xbf, 0xef, 0xdd, 0xd6, 0x3f, 0xc5, 0x44, 0x09, 0xbe,
  0x69, 0x04, 0x91, 0xbe, 0xd6, 0xd2, 0x03, 0xbe, 0xab, 0xc2, 0xcd, 0xbd,
  0xd7, 0x1c, 0xfa, 0xbc, 0x86, 0x95, 0x8a, 0xbe, 0x15, 0x9f, 0xb2, 0xbe,
  0x17, 0xef, 0xc7, 0xbe, 0x24, 0xca, 0x2d, 0x3e, 0xaf, 0x41, 0x4b, 0x3f,
  0x5b, 0x35, 0x45, 0xbd, 0x60, 0x6a, 0xb0, 0xbe, 0xbf, 0x9b, 0xc2, 0xbb,
  0x6a, 0xf4, 0x0d, 0xbf, 0x31, 0x9f, 0x9d, 0xbf, 0x3e, 0x8d, 0xb8, 0x3f,
  0x46, 0x21, 0x8a, 0x3d, 0x39, 0x8d, 0xbd, 0x3d, 0xa2, 0xb9, 0xaa, 0xbd,
  0xa4, 0xfa, 0xd2, 0x3c, 0x0e, 0xd6, 0x5b, 0xbe, 0xb4, 0x67, 0x14, 0x3e,
  0xed, 0x79, 0x05, 0xbe, 0x70, 0x4f, 0x7b, 0xbe, 0x9a, 0xcc, 0x77, 0xbd,
  0x42, 0x52, 0x1e, 0x3f, 0xc4, 0x0b, 0x52, 0x3e, 0xf9, 0x2c, 0x33, 0x3e,
  0xc2, 0x27, 0x1a, 0xbd, 0x45, 0xa5, 0x39, 0xbd, 0xfa, 0x0e, 0x34, 0xbe,
  0xd0, 0xd4, 0x85, 0x3f, 0x4c, 0x74, 0x87, 0xbd, 0x43, 0x48, 0xef, 0x3d,
  0x01, 0xc4, 0xa1, 0xbe, 0x5a, 0x6f, 0x24, 0xbd, 0x38, 0xbe, 0x1b, 0xbe,
  0xac, 0x71, 0xf4, 0x3d, 0xb9, 0x70, 0xf5, 0xbc, 0xca, 0x16, 0x3e, 0xbe,
  0xa0, 0x9d, 0xbd, 0xbd, 0xb8, 0xb6, 0xfd, 0x3e, 0x57, 0x9e, 0xaa, 0x3d,
  0x69, 0x07, 0xbb, 0x3d, 0x2f, 0xd6, 0x00, 0xbd, 0x3d, 0x03, 0x47, 0x3c,
  0x88, 0x41, 0xa5, 0x3d, 0xc9, 0x6b, 0xec, 0x3e, 0x2c, 0x33, 0xc3, 0x3d,
  0xb9, 0x98, 0xae, 0x3d, 0x50, 0x66, 0xab, 0xbe, 0xb4, 0x20, 0x52, 0xbd,
  0x38, 0xbe, 0xff, 0xbd, 0x89, 0x21, 0x40, 0x3d, 0x50, 0xee, 0x6b, 0x3d,
  0xe3, 0x96, 0xb7, 0x3c, 0x57, 0xdf, 0x44, 0xbd, 0xc3, 0x41, 0x79, 0x3e,
  0x98, 0xb7, 0x33, 0xbb, 0x4d, 0x16, 0xba, 0x3d, 0x00, 0xab, 0x9c, 0x3d,
  0x6f, 0x38, 0x3f, 0xbc, 0x98, 0xda, 0x85, 0x3c, 0xe5, 0xe0, 0x18, 0x3e,
  0x33, 0x88, 0x2a, 0x3d, 0x43, 0xf2, 0x1d, 0x3e, 0x78, 0xba, 0xb7, 0x3d,
  0xfb, 0x32, 0xdc, 0xbc, 0xeb, 0x65, 0x29, 0xbe, 0xe4, 0x49, 0x04, 0x3d,
  0x84, 0x80, 0xb1, 0xbd, 0xa4, 0x2f, 0x43, 0xbf, 0xb7, 0xd5, 0x0f, 0xbe,
  0xb6, 0xa5, 0x45, 0xbe, 0x89, 0xff, 0x63, 0xbd, 0xf3, 0x18, 0xf0, 0x3d,
  0x22, 0x0a, 0xed, 0x3d, 0x48, 0xeb, 0xa2, 0x3c, 0x71, 0x94, 0x2f, 0x3e,
  0x9e, 0x42, 0x46, 0x3c, 0xe3, 0xad, 0x2c, 0xbd, 0x1a, 0x5f, 0x2e, 0xbe,
  0xa3, 0x29, 0xb2, 0x3e, 0xf7, 0xec, 0x0b, 0xbe, 0xa5, 0x39, 0xaa, 0x3c,
  0x04, 0x06, 0x0f, 0xbe, 0xbe, 0x30, 0x29, 0x3e, 0x38, 0xef, 0x3d, 0xbe,
  0x3d, 0x10, 0x49, 0x3e, 0xff, 0xdf, 0x50, 0xbd, 0x24, 0xc3, 0xdb, 0x3d,
  0x97, 0x62, 0x13, 0xbf, 0xba, 0x92, 0x12, 0xbe, 0xc7, 0xb9, 0x08, 0xbf,
  0x1c, 0x48, 0x1e, 0xbf, 0xc9, 0x24, 0x95, 0x3d, 0xf7, 0x04, 0x98, 0xbe,
  0x01, 0x6a, 0xe0, 0xbe, 0xdd, 0xe2, 0x08, 0x3e, 0xdd, 0x95, 0x82, 0xbd,
  0x15, 0x6c, 0x96, 0xbd, 0x9a, 0x35, 0x22, 0xbe, 0x47, 0x1b, 0x0d, 0x3e,
  0xf7, 0x8e, 0x66, 0xbe, 0x59, 0xd5, 0x0a, 0xbe, 0xc3, 0xa3, 0x94, 0xbb,
  0x00, 0x22, 0x02, 0xbe, 0xc7, 0x2e, 0xc2, 0xbe, 0x16, 0x67, 0x4c, 0x3d,
  0xf8, 0x41, 0x11, 0xbf, 0x54, 0x17, 0x7e, 0xbf, 0x40, 0xaf, 0x9d, 0xbd,
  0x64, 0x28, 0x3a, 0xbe, 0x64, 0x1c, 0x43, 0xbe, 0xb6, 0xb8, 0xe2, 0x3c,
  0xbf, 0x80, 0x00, 0xbc, 0xaf, 0x16, 0x96, 0x3d, 0x44, 0xe6, 0xbd, 0xbe,
  0x0e, 0x3f, 0x97, 0xbe, 0x62, 0xdf, 0x5b, 0xbf, 0x53, 0xdf, 0x03, 0xbe,
  0x71, 0x99, 0x0f, 0xbe, 0x8e, 0xae, 0x4b, 0x3e, 0xd7, 0xf6, 0x90, 0xbe,
  0xf7, 0x0c, 0x2a, 0x3d, 0x12, 0xa5, 0x9a, 0xbe, 0xad, 0xb1, 0x72, 0xbf,
  0x98, 0xf0, 0x0d, 0x3c, 0x7f, 0xda, 0x09, 0xbd, 0x74, 0x93, 0xb3, 0x3d,
  0x22, 0xe1, 0xba, 0x3d, 0xf4, 0x1d, 0xd0, 0x3d, 0x8c, 0xca, 0x03, 0xbe,
  0xcf, 0xea, 0x96, 0x3e, 0xe8, 0x08, 0xc3, 0x3d, 0x91, 0x23, 0x19, 0xbf,
  0xfc, 0x0b, 0x3e, 0x3d, 0xdc, 0x03, 0x10, 0xbe, 0xe8, 0x5f, 0x87, 0x3e,
  0x6b, 0x54, 0x57, 0x3e, 0x3c, 0xbe, 0x05, 0xbe, 0x98, 0xa7, 0xcf, 0x3d,
  0x9c, 0x5e, 0x50, 0xbd, 0x72, 0xaa, 0x11, 0x3d, 0xa5, 0xc5, 0x40, 0x3c,
  0xb8, 0x56, 0x51, 0x3e, 0x77, 0xb5, 0x85, 0xbe, 0x4f, 0xe5, 0x9b, 0x3c,
  0xae, 0x4d, 0xd3, 0x3d, 0xbd, 0xd7, 0xf7, 0x3d, 0x1a, 0xe0, 0xa4, 0xbd,
  0x25, 0x87, 0x9c, 0xbe, 0x76, 0x34, 0x1b, 0xbe, 0xd2, 0x9b, 0xb7, 0xbb,
  0x6c, 0x86, 0x84, 0x3e, 0xfa, 0x37, 0xfd, 0x3d, 0x14, 0x5e, 0x06, 0x3d,
  0x18, 0x09, 0x1f, 0xbd, 0x95, 0x96, 0x05, 0x3e, 0x60, 0x1c, 0xb1, 0xbd,
  0x77, 0xcc, 0x0b, 0x3b, 0x72, 0xe2, 0xec, 0xbe, 0x6b, 0xf2, 0x23, 0xbf,
  0xd3, 0x14, 0xa2, 0xbe, 0xc1, 0x7a, 0xc0, 0x3c, 0x76, 0xd4, 0x6f, 0xbe,
  0x09, 0x60, 0x5d, 0x3c, 0x2e, 0x6b, 0xdf, 0xbd, 0x7a, 0xee, 0x53, 0xbe,
  0x3f, 0x0f, 0xc8, 0xbe, 0x10, 0xd7, 0xb3, 0xbc, 0xf0, 0x1f, 0x7e, 0xbe,
  0x2e, 0x67, 0x1d, 0xbd, 0xad, 0x37, 0xf1, 0xbd, 0xf9, 0x3a, 0x7e, 0xbf,
  0xd7, 0x41, 0x10, 0xbd, 0xcf, 0x39, 0x91, 0xbe, 0x8c, 0x8d, 0xe1, 0xbd,
  0x40, 0x08, 0x7b, 0x3e, 0xf3, 0x30, 0x9e, 0xbe, 0x67, 0xc0, 0x0d, 0xbe,
  0x2c, 0xb7, 0xe7, 0xbd, 0x45, 0xc9, 0x34, 0xbe, 0xba, 0xfb, 0x6a, 0xbd,
  0x6a, 0x68, 0x79, 0xbe, 0xa3, 0xca, 0x68, 0x3f, 0x91, 0xb6, 0xc4, 0xbb,
  0x2b, 0x61, 0x19, 0xbe, 0x1b, 0xcc, 0x3c, 0xbd, 0x50, 0xf7, 0x82, 0xbe,
  0xbb, 0x12, 0xd5, 0xbe, 0xa1, 0x46, 0xcb, 0x3e, 0xf2, 0x93, 0x18, 0xbe,
  0xc9, 0x37, 0x82, 0x3d, 0x4a, 0x51, 0xfa, 0xbd, 0xe1, 0x4b, 0x91, 0xbe,
  0xb5, 0x22, 0x4a, 0xbc, 0xae, 0x14, 0xd4, 0x3d, 0x7f, 0x00, 0x2d, 0x3d,
  0x3d, 0x3e, 0x4f, 0x3e, 0x94, 0x7c, 0x6f, 0x3e, 0x3c, 0xf1, 0x3d, 0x3f,
  0x8c, 0xa7, 0x53, 0x3e, 0xc6, 0xc2, 0x17, 0x3e, 0x38, 0xf8, 0x32, 0xbe,
  0xfd, 0x4d, 0xd7, 0xbc, 0xa2, 0xf2, 0xf2, 0xbe, 0x5b, 0x44, 0x90, 0x3f,
  0x7b, 0x41, 0x10, 0xbe, 0x7f, 0xac, 0x00, 0xbe, 0xe6, 0xf3, 0x13, 0x3e,
  0x8d, 0x78, 0xa4, 0x3d, 0x93, 0xbf, 0xab, 0x3d, 0x82, 0xfd, 0x09, 0x3e,
  0xcd, 0x37, 0x94, 0x3d, 0x69, 0x92, 0xf3, 0x3d, 0xb5, 0x15, 0x53, 0x3e,
  0x8a, 0xb8, 0x76, 0x3f, 0x56, 0x4a, 0xa1, 0x3d, 0x23, 0x00, 0x10, 0x3e,
  0xd8, 0xcf, 0x12, 0x3d, 0xf6, 0x85, 0xaf, 0xbd, 0xe1, 0x3d, 0xce, 0xbe,
  0x02, 0x44, 0xc0, 0x3f, 0x9f, 0xad, 0xf0, 0xbc, 0x08, 0x70, 0x6a, 0x3d,
  0x2e, 0xea, 0x43, 0xbe, 0x75, 0xaf, 0x66, 0xbe, 0x41, 0x2b, 0xa9, 0x3d,
  0xa3, 0xab, 0x17, 0xbd, 0xac, 0x57, 0x4a, 0xbe, 0xf9, 0xae, 0x75, 0x3e,
  0xa2, 0xf0, 0x87, 0x3d, 0x49, 0x42, 0x88, 0x3f, 0x3c, 0x52, 0xa4, 0x3d,
  0x69, 0xaa, 0xef, 0x3b, 0x99, 0xff, 0x43, 0x3d, 0x38, 0x97, 0xbd, 0xbe,
  0x85, 0xd8, 0x4b, 0xbe, 0x58, 0xe3, 0x9b, 0x3f, 0xda, 0xb9, 0x1c, 0xbe,
  0xbd, 0x8f, 0x81, 0x3d, 0x0b, 0x66, 0x53, 0x3d, 0xed, 0x74, 0x83, 0x3d,
  0xc9, 0x7d, 0xed, 0x3d, 0xa2, 0x2f, 0x13, 0xbd, 0x54, 0xc3, 0x8c, 0x3d,
  0xb6, 0xc8, 0x8a, 0x3e, 0xe4, 0x23, 0x35, 0x3e, 0x89, 0xbc, 0x96, 0x3f,
  0x9a, 0x5d, 0x27, 0x3e, 0x49, 0xd8, 0x75, 0xbe, 0x74, 0x97, 0x15, 0xbe,
  0x35, 0xd3, 0x89, 0xbe, 0xe7, 0x22, 0x83, 0xbe, 0x1b, 0x72, 0xab, 0x3f,
  0x5f, 0xd1, 0x90, 0xbd, 0x6c, 0x2d, 0x7b, 0x3d, 0x2c, 0x00, 0x93, 0xbe,
  0x2f, 0x9e, 0xda, 0xbd, 0x3c, 0x08, 0xde, 0x3d, 0x00, 0xe2, 0x6a, 0x3b,
  0xa4, 0xc6, 0xf1, 0xbd, 0x01, 0x5d, 0x80, 0xbd, 0x63, 0x3c, 0xb6, 0x3e,
  0xd8, 0x81, 0x11, 0x3f, 0x24, 0x82, 0xe4, 0xbd, 0x7d, 0xb9, 0x2b, 0x3d,
  0xcf, 0xab, 0xa2, 0x3d, 0x8b, 0x43, 0x7e, 0xbd, 0xf7, 0x92, 0xee, 0xbe,
  0x09, 0x4f, 0xd4, 0x3f, 0xd0, 0x63, 0xa1, 0xbe, 0x00, 0xd3, 0xe3, 0xbc,
  0xda, 0x52, 0xdd, 0xbe, 0x3e, 0x51, 0xc1, 0xbe, 0x24, 0x1e, 0x34, 0xbe,
  0x3f, 0x42, 0x3f, 0xbe, 0x45, 0x68, 0x99, 0xbe, 0xc6, 0xec, 0x14, 0xbd,
  0x58, 0xb8, 0xb5, 0x3e, 0xf2, 0xa4, 0x22, 0x3f, 0x96, 0xf0, 0x9b, 0xbb,
  0x80, 0x22, 0x31, 0xbe, 0xf4, 0x20, 0x47, 0xbe, 0xc9, 0x7b, 0xa3, 0xbd,
  0x7b, 0x94, 0x85, 0xbe, 0xdc, 0x12, 0xde, 0x3d, 0x93, 0xda, 0x8d, 0x3d,
  0x30, 0xab, 0x51, 0xbe, 0x36, 0x12, 0xbb, 0xbe, 0x68, 0x58, 0xf5, 0xbd,
  0x71, 0x1c, 0x51, 0xbe, 0x0e, 0xe9, 0x93, 0xbe, 0xd2, 0x71, 0xc8, 0x3d,
  0x92, 0x16, 0x8e, 0xbc, 0x27, 0x5b, 0x86, 0xbe, 0x08, 0xa8, 0xcc, 0x3d,
  0x4a, 0x88, 0x18, 0xbe, 0x4e, 0x0e, 0x78, 0xbe, 0xc8, 0x24, 0xbe, 0xbd,
  0x56, 0xa8, 0xf3, 0x3d, 0x88, 0x2a, 0xe6, 0xbd, 0x45, 0xf3, 0x58, 0x3e,
  0x91, 0xea, 0x86, 0x3e, 0x16, 0x71, 0x20, 0xbe, 0xd3, 0x25, 0xe5, 0x3d,
  0xdb, 0x2f, 0x21, 0xbe, 0x05, 0x09, 0x12, 0x3c, 0xc7, 0x3a, 0x13, 0x3d,
  0x5e, 0x33, 0xd0, 0x3d, 0x6f, 0x9e, 0x03, 0x3e, 0x37, 0x6a, 0xa9, 0xbd,
  0x2a, 0x38, 0x4f, 0x3e, 0x8e, 0x23, 0x4c, 0xbe, 0x2a, 0x5b, 0x71, 0xbe,
  0xff, 0x76, 0xa5, 0xbd, 0x2c, 0x0b, 0x0b, 0xbe, 0x1c, 0x12, 0x24, 0x3d,
  0x97, 0x1e, 0x9b, 0x3f, 0xb9, 0xc1, 0x63, 0x3e, 0x3d, 0x4b, 0x8b, 0xbe,
  0xc7, 0x30, 0xd2, 0x3a, 0x6d, 0x07, 0x9a, 0xbe, 0x1b, 0x67, 0xb1, 0xbd,
  0x01, 0xc2, 0x3b, 0xbd, 0xa4, 0x7c, 0x9c, 0x3d, 0x0c, 0x67, 0xcf, 0xbe,
  0x2e, 0xc9, 0x0a, 0x3e, 0x8e, 0xec, 0xd5, 0x3c, 0x8c, 0xbe, 0xa1, 0x3d,
  0xd1, 0xe5, 0x5a, 0xbe, 0x88, 0xbd, 0x59, 0xbc, 0xed, 0x5d, 0xda, 0x3d,
  0x30, 0x4e, 0x3c, 0x3e, 0xbb, 0x20, 0x93, 0x3f, 0x50, 0xf0, 0xac, 0x3e,
  0xe0, 0x1e, 0x2a, 0xbe, 0x07, 0xb0, 0xc8, 0x3d, 0x1d, 0xdb, 0x37, 0xbe,
  0x9d, 0x18, 0x9e, 0xbd, 0xe6, 0xeb, 0xe1, 0xbe, 0x21, 0x40, 0x50, 0x3e,
  0xc8, 0xbb, 0x7c, 0x3d, 0x76, 0xdd, 0xb3, 0x3d, 0xff, 0x52, 0x9d, 0x3e,
  0xfa, 0x45, 0x38, 0x3e, 0x7f, 0xfa, 0x95, 0xbc, 0x56, 0xfa, 0xa7, 0xbd,
  0x09, 0xb6, 0x66, 0x3e, 0x72, 0x6d, 0x2e, 0x3d, 0x2e, 0x99, 0xcb, 0x3f,
  0xc9, 0x2c, 0x99, 0x3d, 0x10, 0x18, 0x61, 0xbe, 0x7b, 0xb7, 0xba, 0xbb,
  0x51, 0x4e, 0x39, 0xbe, 0x8a, 0x81, 0x04, 0x3d, 0xcd, 0x4c, 0x51, 0x3d,
  0xda, 0x6d, 0x80, 0x3e, 0x0e, 0x84, 0x94, 0xbd, 0x02, 0xcd, 0x16, 0x3d,
  0xf2, 0xac, 0x03, 0x3f, 0x7e, 0x24, 0x53, 0xbe, 0xd3, 0xfb, 0x85, 0x3d,
  0xe9, 0x20, 0x5c, 0xbd, 0x7a, 0x14, 0xfb, 0xbd, 0x97, 0x5f, 0xcf, 0xbd,
  0xe4, 0x53, 0xdf, 0x3f, 0x1d, 0xf5, 0xed, 0x3d, 0x78, 0x09, 0xbf, 0xbe,
  0x4b, 0x42, 0xa7, 0x3c, 0x32, 0xf6, 0x95, 0xbe, 0x93, 0x49, 0x71, 0x3d,
  0xcb, 0x5e, 0x34, 0xbd, 0xd6, 0x1f, 0x8c, 0x3c, 0x27, 0xb3, 0xb0, 0xbe,
  0x5b, 0x18, 0x4d, 0x3d, 0x9b, 0x30, 0x85, 0x3e, 0xc2, 0x34, 0x64, 0xbd,
  0x58, 0xd4, 0x49, 0xbe, 0x08, 0xd2, 0xe6, 0xbd, 0x60, 0xe9, 0x2a, 0xbe,
  0x26, 0xa4, 0x04, 0xbd, 0x50, 0x8c, 0x0d, 0x40, 0x84, 0xb0, 0xb7, 0xbd,
  0xb0, 0xed, 0xb1, 0xbe, 0x8d, 0xfe, 0x94, 0x3d, 0x84, 0x16, 0x27, 0xbe,
  0x5b, 0x93, 0x4e, 0x3d, 0x7e, 0x31, 0xe1, 0xbd, 0x6a, 0x06, 0xd3, 0xbb,
  0xbe, 0xc2, 0xb9, 0xbe, 0x1e, 0xbe, 0xcb, 0xbd, 0xf3, 0x28, 0xd7, 0xbd,
  0x43, 0xbc, 0x0d, 0x3e, 0x4b, 0x13, 0x0b, 0x3c, 0x21, 0x9e, 0x33, 0xbe,
  0x5f, 0xea, 0x09, 0x3c, 0x1d, 0x2d, 0xad, 0xbd, 0x81, 0x92, 0xd7, 0xbd,
  0x46, 0xfe, 0xff, 0xff, 0x10, 0x00, 0x00, 0x00, 0x05, 0x00, 0x00, 0x00,
  0x14, 0x00, 0x00, 0x00, 0x2c, 0x00, 0x00, 0x00, 0x02, 0x00, 0x00, 0x00,
  0x10, 0x00, 0x00, 0x00, 0x70, 0x00, 0x00, 0x00, 0x17, 0x00, 0x00, 0x00,
  0x73, 0x65, 0x71, 0x75, 0x65, 0x6e, 0x74, 0x69, 0x61, 0x6c, 0x2f, 0x64,
  0x65, 0x6e, 0x73, 0x65, 0x2f, 0x4d, 0x61, 0x74, 0x4d, 0x75, 0x6c, 0x00,
  0x34, 0xfe, 0xff, 0xff, 0x2a, 0xff, 0xff, 0xff, 0x04, 0x00, 0x00, 0x00,
  0x08, 0x00, 0x00, 0x00, 0xff, 0xff, 0xff, 0xff, 0x70, 0x00, 0x00, 0x00,
  0x00, 0x00, 0x0e, 0x00, 0x18, 0x00, 0x08, 0x00, 0x07, 0x00, 0x0c, 0x00,
  0x10, 0x00, 0x14, 0x00, 0x0e, 0x00, 0x00, 0x00, 0x00, 0x00, 0x00, 0x02,
  0x10, 0x00, 0x00, 0x00, 0x04, 0x00, 0x00, 0x00, 0x10, 0x00, 0x00, 0x00,
  0x2c, 0x00, 0x00, 0x00, 0x01, 0x00, 0x00, 0x00, 0x02, 0x00, 0x00, 0x00,
  0x18, 0x00, 0x00, 0x00, 0x73, 0x65, 0x71, 0x75, 0x65, 0x6e, 0x74, 0x69,
  0x61, 0x6c, 0x2f, 0x66, 0x6c, 0x61, 0x74, 0x74, 0x65, 0x6e, 0x2f, 0x43,
  0x6f, 0x6e, 0x73, 0x74, 0x00, 0x00, 0x00, 0x00, 0x9c, 0xfe, 0xff, 0xff,
  0x92, 0xff, 0xff, 0xff, 0x04, 0x00, 0x00, 0x00, 0x10, 0x00, 0x00, 0x00,
  0x92, 0xd5, 0x55, 0xc0, 0xcd, 0x10, 0xb9, 0xc0, 0x6e, 0x04, 0xa3, 0x3f,
  0xb9, 0x1d, 0xff, 0x3f, 0x0a, 0xff, 0xff, 0xff, 0x10, 0x00, 0x00, 0x00,
  0x03, 0x00, 0x00, 0x00, 0x10, 0x00, 0x00, 0x00, 0x3c, 0x00, 0x00, 0x00,
  0x01, 0x00, 0x00, 0x00, 0x04, 0x00, 0x00, 0x00, 0x29, 0x00, 0x00, 0x00,
  0x73, 0x65, 0x71, 0x75, 0x65, 0x6e, 0x74, 0x69, 0x61, 0x6c, 0x2f, 0x64,
  0x65, 0x6e, 0x73, 0x65, 0x5f, 0x31, 0x2f, 0x42, 0x69, 0x61, 0x73, 0x41,
  0x64, 0x64, 0x2f, 0x52, 0x65, 0x61, 0x64, 0x56, 0x61, 0x72, 0x69, 0x61,
  0x62, 0x6c, 0x65, 0x4f, 0x70, 0x00, 0x00, 0x00, 0x60, 0xff, 0xff, 0xff,
  0x00, 0x00, 0x06, 0x00, 0x08, 0x00, 0x04, 0x00, 0x06, 0x00, 0x00, 0x00,
  0x04, 0x00, 0x00, 0x00, 0x40, 0x00, 0x00, 0x00, 0xa7, 0x95, 0xe4, 0x3e,
  0x3d, 0x9f, 0x44, 0x3f, 0xff, 0xe8, 0x82, 0x3e, 0x80, 0xf7, 0x34, 0x3e,
  0x57, 0x52, 0xce, 0xbf, 0x3c, 0x51, 0x79, 0x3f, 0x3c, 0x05, 0xc2, 0xbf,
  0x42, 0x8e, 0x01, 0x40, 0xf9, 0x68, 0x80, 0xbf, 0x8f, 0x9f, 0x55, 0x40,
  0x70, 0x3e, 0x80, 0xbf, 0xdb, 0xf5, 0x0c, 0x3f, 0x65, 0xb1, 0x8c, 0xbf,
  0x25, 0xcb, 0x00, 0xc0, 0xda, 0xbc, 0x70, 0x3e, 0xea, 0x2f, 0xbb, 0xbe,
  0xae, 0xff, 0xff, 0xff, 0x10, 0x00, 0x00, 0x00, 0x02, 0x00, 0x00, 0x00,
  0x10, 0x00, 0x00, 0x00, 0x3c, 0x00, 0x00, 0x00, 0x01, 0x00, 0x00, 0x00,
  0x10, 0x00, 0x00, 0x00, 0x27, 0x00, 0x00, 0x00, 0x73, 0x65, 0x71, 0x75,
  0x65, 0x6e, 0x74, 0x69, 0x61, 0x6c, 0x2f, 0x64, 0x65, 0x6e, 0x73, 0x65,
  0x2f, 0x42, 0x69, 0x61, 0x73, 0x41, 0x64, 0x64, 0x2f, 0x52, 0x65, 0x61,
  0x64, 0x56, 0x61, 0x72, 0x69, 0x61, 0x62, 0x6c, 0x65, 0x4f, 0x70, 0x00,
  0x04, 0x00, 0x06, 0x00, 0x04, 0x00, 0x00, 0x00, 0x00, 0x00, 0x0e, 0x00,
  0x14, 0x00, 0x04, 0x00, 0x00, 0x00, 0x08, 0x00, 0x0c, 0x00, 0x10, 0x00,
  0x0e, 0x00, 0x00, 0x00, 0x10, 0x00, 0x00, 0x00, 0x01, 0x00, 0x00, 0x00,
  0x1c, 0x00, 0x00, 0x00, 0x2c, 0x00, 0x00, 0x00, 0x04, 0x00, 0x00, 0x00,
  0x01, 0x00, 0x00, 0x00, 0x40, 0x00, 0x00, 0x00, 0x03, 0x00, 0x00, 0x00,
  0x01, 0x00, 0x00, 0x00, 0x0c, 0x00, 0x00, 0x00, 0x63, 0x6f, 0x6e, 0x76,
  0x32, 0x64, 0x5f, 0x69, 0x6e, 0x70, 0x75, 0x74, 0x00, 0x00, 0x00, 0x00,
  0xfc, 0xff, 0xff, 0xff, 0x04, 0x00, 0x04, 0x00, 0x04, 0x00, 0x00, 0x00

};


unsigned int model_tflite_len = 12384;// Fill the int in `src/model.cc` here